{
    "<pad>": 0,
    "<unk>": 1,
    "<s>": 2,
    "</s>": 3,
    ",": 4,
    ".": 5,
    "-": 6,
    "те": 7,
    "—": 8,
    "та": 9,
    ":": 10,
    ";": 11,
    "вӑл": 12,
    "сем": 13,
    "ӑна": 14,
    "тата": 15,
    "«": 16,
    "?": 17,
    "вара": 18,
    "пек": 19,
    "не": 20,
    "пӗр": 21,
    "па": 22,
    "сене": 23,
    "Ҫӳлхуҫа": 24,
    "и": 25,
    "ма": 26,
    "!": 27,
    "вӗсем": 28,
    "»": 29,
    "эпӗ": 30,
    "ҫине": 31,
    "мӗн": 32,
    "тенӗ": 33,
    "Вӑл": 34,
    "ҫинчен": 35,
    "сен": 36,
    "пулнӑ": 37,
    "мар": 38,
    "чӗ": 39,
    "са": 40,
    "унӑн": 41,
    "ӗ": 42,
    "Эпӗ": 43,
    "ӗнтӗ": 44,
    "нӑ": 45,
    "тесе": 46,
    "вӗсене": 47,
    "каланӑ": 48,
    "ран": 49,
    "ҫав": 50,
    "пе": 51,
    "е": 52,
    "ҫапла": 53,
    "ха": 54,
    "ман": 55,
    "мана": 56,
    "т@@": 57,
    "ӑн": 58,
    "т": 59,
    "семпе": 60,
    "ни": 61,
    "я@@": 62,
    "А@@": 63,
    "нине": 64,
    "ту@@": 65,
    "Турӑ": 66,
    "ра": 67,
    "ан": 68,
    "ӗҫ": 69,
    "хӑйӗн": 70,
    "ҫын": 71,
    "ун": 72,
    "кӗ@@": 73,
    "к@@": 74,
    "лӑ": 75,
    "патне": 76,
    "хӑй": 77,
    "с@@": 78,
    "ҫӗр": 79,
    "чухне": 80,
    "тӑ@@": 81,
    "у@@": 82,
    "лӗ": 83,
    "…": 84,
    "ху@@": 85,
    "илсе": 86,
    "р": 87,
    "на": 88,
    "эсӗ": 89,
    "анчах": 90,
    "ӗн": 91,
    "ҫак": 92,
    "ла@@": 93,
    "а@@": 94,
    "пур": 95,
    "л@@": 96,
    "ҫинче": 97,
    "ш@@": 98,
    "Чӑваш": 99,
    "нӗ": 100,
    "пӗтӗм": 101,
    "те@@": 102,
    "ка": 103,
    "ку@@": 104,
    "ри": 105,
    "с": 106,
    "ле@@": 107,
    "сана": 108,
    "1": 109,
    "та@@": 110,
    "ӑр": 111,
    "н": 112,
    "ка@@": 113,
    "па@@": 114,
    "хӑ@@": 115,
    "ла": 116,
    "х@@": 117,
    "ра@@": 118,
    "д@@": 119,
    "ҫук": 120,
    "п@@": 121,
    "ил@@": 122,
    "[": 123,
    "кайнӑ": 124,
    "ан@@": 125,
    "тӑр": 126,
    "2": 127,
    "туса": 128,
    "ҫи@@": 129,
    "пӗрле": 130,
    "м@@": 131,
    "ме": 132,
    "Израиль": 133,
    "ю@@": 134,
    "тӑнӑ": 135,
    "3": 136,
    "тунӑ": 137,
    "панӑ": 138,
    "се": 139,
    "мӗш": 140,
    "мӗншӗн": 141,
    "е@@": 142,
    "ни@@": 143,
    "вӗсен": 144,
    "ҫул": 145,
    "ать": 146,
    "эсир": 147,
    "эпир": 148,
    "Анчах": 149,
    "рӗ": 150,
    "тар@@": 151,
    "ку": 152,
    "ӑ@@": 153,
    "малла": 154,
    "к": 155,
    "кил@@": 156,
    "сан": 157,
    "хыҫҫӑн": 158,
    "5": 159,
    "ҫеҫ": 160,
    "пирӗн": 161,
    "й@@": 162,
    "пулса": 163,
    "а": 164,
    "н@@": 165,
    "кун": 166,
    "пекех": 167,
    "пу@@": 168,
    "ви@@": 169,
    "ӑн@@": 170,
    "4": 171,
    "С@@": 172,
    "м": 173,
    "ар@@": 174,
    "ти@@": 175,
    "терӗ": 176,
    ")": 177,
    "о@@": 178,
    "Эсӗ": 179,
    "ҫ@@": 180,
    "6": 181,
    "ф@@": 182,
    "сире": 183,
    "илнӗ": 184,
    "з@@": 185,
    "валли": 186,
    "тӗ@@": 187,
    "каласа": 188,
    "сенчен": 189,
    "ч@@": 190,
    "пул@@": 191,
    "унта": 192,
    "ҫу@@": 193,
    "лӑх": 194,
    "я": 195,
    "7": 196,
    "и@@": 197,
    "манӑн": 198,
    "в@@": 199,
    "кӑна": 200,
    "г@@": 201,
    "умӗнче": 202,
    "у": 203,
    "К@@": 204,
    "пулсан": 205,
    "ӗҫ@@": 206,
    "икӗ": 207,
    "пулӗ": 208,
    "в": 209,
    "шӑн": 210,
    "ре@@": 211,
    "ӗ@@": 212,
    "халӑх": 213,
    "Унӑн": 214,
    "лан@@": 215,
    "й": 216,
    "кӑ@@": 217,
    "ат@@": 218,
    "ал@@": 219,
    "9": 220,
    "8": 221,
    "са@@": 222,
    "ти": 223,
    "си@@": 224,
    "чӗҫ": 225,
    "]": 226,
    "л": 227,
    "10": 228,
    "ха@@": 229,
    "мӗ": 230,
    "пы@@": 231,
    "мӗнле": 232,
    "Республикин": 233,
    "хӑйсен": 234,
    "нипе": 235,
    "тет": 236,
    "ва": 237,
    "рах": 238,
    "санӑн": 239,
    "ывӑлӗ": 240,
    "тухнӑ": 241,
    "ен@@": 242,
    "ма@@": 243,
    "ҫынсем": 244,
    "хирӗҫ": 245,
    "рен": 246,
    "тан": 247,
    "11": 248,
    "Ӑна": 249,
    "кан@@": 250,
    "на@@": 251,
    "пӗ@@": 252,
    "пурте": 253,
    "сирӗн": 254,
    "12": 255,
    "б@@": 256,
    "ки@@": 257,
    "су@@": 258,
    "сенче": 259,
    "янӑ": 260,
    "п": 261,
    "–": 262,
    "тарса": 263,
    "э@@": 264,
    "ӗсем": 265,
    "(": 266,
    "пире": 267,
    "ҫавӑн": 268,
    "патша": 269,
    "ҫҫӗ": 270,
    "кам": 271,
    "пынӑ": 272,
    "лар@@": 273,
    "ли@@": 274,
    "тӑрӑх": 275,
    "пӑ@@": 276,
    "сӑр": 277,
    "ми@@": 278,
    "пуҫ@@": 279,
    "тума": 280,
    "мелле": 281,
    "Х@@": 282,
    "ве@@": 283,
    "шӗн": 284,
    "вил@@": 285,
    "Т@@": 286,
    "пурӑн@@": 287,
    "ст@@": 288,
    "не@@": 289,
    "чи": 290,
    "лӑ@@": 291,
    "тер@@": 292,
    "У@@": 293,
    "ҫул@@": 294,
    "Вӗсем": 295,
    "пи@@": 296,
    "акӑ": 297,
    "мен": 298,
    "пысӑк": 299,
    "тытса": 300,
    "тесессӗн": 301,
    "тат@@": 302,
    "тӑм": 303,
    "шӑ@@": 304,
    "пӑхса": 305,
    "кур@@": 306,
    "пулин": 307,
    "ӳ@@": 308,
    "тухса": 309,
    "пӑх@@": 310,
    "ӗнче": 311,
    "13": 312,
    "ырӑ": 313,
    "ль@@": 314,
    "нумай": 315,
    "хи": 316,
    "ывӑлӗсем": 317,
    "Манӑн": 318,
    "ласа": 319,
    "И@@": 320,
    "ри@@": 321,
    "ре": 322,
    "15": 323,
    "пулать": 324,
    "ши": 325,
    "халӗ": 326,
    "ро@@": 327,
    "14": 328,
    "рӗҫ": 329,
    "ди@@": 330,
    "ӑр@@": 331,
    "ӑра": 332,
    "Вара": 333,
    "Иисус": 334,
    "хӑйне": 335,
    "се@@": 336,
    "пырса": 337,
    "питӗ": 338,
    "ле": 339,
    "ҫ": 340,
    "аслӑ": 341,
    "ман@@": 342,
    "ӑш@@": 343,
    "пар@@": 344,
    "р@@": 345,
    "малли": 346,
    "ҫӗр@@": 347,
    "масть": 348,
    "кай@@": 349,
    "хушшинче": 350,
    "ме@@": 351,
    "ке@@": 352,
    "16": 353,
    "П@@": 354,
    "унтан": 355,
    "ӑ": 356,
    "парне": 357,
    "масӑр": 358,
    "ҫынна": 359,
    "17": 360,
    "ҫӑ@@": 361,
    "лен@@": 362,
    "ер@@": 363,
    "ҫӗре": 364,
    "май": 365,
    "но@@": 366,
    "кун@@": 367,
    "сӗр": 368,
    "кӗр@@": 369,
    "тепӗр": 370,
    "20": 371,
    "пулсассӑн": 372,
    "пӗр@@": 373,
    "лайӑх": 374,
    "ӳ": 375,
    "тӳ@@": 376,
    "сассӑн": 377,
    "Ш@@": 378,
    "ех": 379,
    "рӑм": 380,
    "сӑмах": 381,
    "тӑр@@": 382,
    "ло@@": 383,
    "вӑ@@": 384,
    "юл@@": 385,
    "тӗп": 386,
    "18": 387,
    "пин": 388,
    "пал@@": 389,
    "ӗсене": 390,
    "пуҫне": 391,
    "пултӑр": 392,
    "нимӗн": 393,
    "Ч@@": 394,
    "нчен": 395,
    "пат@@": 396,
    "хы@@": 397,
    "шухӑш@@": 398,
    "ин@@": 399,
    "ь@@": 400,
    "»,": 401,
    "кал@@": 402,
    "ки": 403,
    "ӗпе": 404,
    "ир@@": 405,
    "лӑн": 406,
    "В@@": 407,
    "ҫакӑн": 408,
    "ланӑ": 409,
    "чӗр@@": 410,
    "тӗр": 411,
    "ми": 412,
    "лӑха": 413,
    "усал": 414,
    "ҫӗ@@": 415,
    "ш": 416,
    "тарнӑ": 417,
    "ет": 418,
    "вӑхӑтра": 419,
    "19": 420,
    "кӗ": 421,
    "йӗ@@": 422,
    "Е@@": 423,
    "вӗ@@": 424,
    "тух@@": 425,
    "кайрӗ": 426,
    "сах": 427,
    "Ҫав": 428,
    "пурне": 429,
    "до@@": 430,
    "хут": 431,
    "тен": 432,
    "мӗ@@": 433,
    "ко@@": 434,
    "21": 435,
    "мо@@": 436,
    "пирки": 437,
    "де@@": 438,
    "№-": 439,
    "х": 440,
    "ларнӑ": 441,
    "Мана": 442,
    "йӗ": 443,
    "Санӑн": 444,
    "пӗл@@": 445,
    "Ун": 446,
    "Эй": 447,
    "пӑр": 448,
    "кала@@": 449,
    "ру@@": 450,
    "каялла": 451,
    "сӗ@@": 452,
    "хунӑ": 453,
    "чӗ@@": 454,
    "илчӗ": 455,
    "ана": 456,
    "Ҫӳлхуҫана": 457,
    "ҫырса": 458,
    "йӑ@@": 459,
    "кирлӗ": 460,
    "куҫ@@": 461,
    "кунта": 462,
    "пулчӗ": 463,
    "ччӗ": 464,
    "килнӗ": 465,
    "вӗрен@@": 466,
    "лӗ@@": 467,
    "ж@@": 468,
    "нисем": 469,
    "ура@@": 470,
    "сӑн@@": 471,
    "ву@@": 472,
    "ӗҫе": 473,
    "Ҫ@@": 474,
    "ӑнса": 475,
    "О@@": 476,
    "тери": 477,
    "хӗр@@": 478,
    "ытти": 479,
    "во@@": 480,
    "Ҫак": 481,
    "вӗҫ@@": 482,
    "по@@": 483,
    "сӑ@@": 484,
    "ча@@": 485,
    "ланса": 486,
    "хӗ@@": 487,
    "Ку": 488,
    "ак@@": 489,
    "22": 490,
    "ҫитнӗ": 491,
    "таса": 492,
    "ача": 493,
    "вар@@": 494,
    "М@@": 495,
    "вырӑнне": 496,
    "ва@@": 497,
    "ҫакна": 498,
    "шыв": 499,
    "ци@@": 500,
    "ӗнен@@": 501,
    "тӗр@@": 502,
    "ту": 503,
    "кан": 504,
    "ҫавӑнпа": 505,
    "тӑракан": 506,
    "ша@@": 507,
    "ӗр": 508,
    "пе@@": 509,
    "урлӑ": 510,
    "мӗнпур": 511,
    "23": 512,
    "пӗтер@@": 513,
    "калать": 514,
    "йӗр@@": 515,
    "мелли": 516,
    "тӗрлӗ": 517,
    "тӑрать": 518,
    "ь": 519,
    "тса": 520,
    "сси": 521,
    "кайса": 522,
    "сӑр@@": 523,
    "ҫур@@": 524,
    "кашни": 525,
    "Давид": 526,
    "аллине": 527,
    "хӑвӑн": 528,
    "шӗ": 529,
    "тӑн": 530,
    "д": 531,
    "Э@@": 532,
    "ас@@": 533,
    "мен@@": 534,
    "вырӑн@@": 535,
    "марӗ": 536,
    "ав@@": 537,
    "виҫӗ": 538,
    "Алексей": 539,
    "че@@": 540,
    "вӑр@@": 541,
    "пурӑннӑ": 542,
    "ччен": 543,
    "ц@@": 544,
    "лесе": 545,
    "лартнӑ": 546,
    "чӑн": 547,
    "йышӑн@@": 548,
    "семшӗн": 549,
    "Ка@@": 550,
    "ил": 551,
    "Хӑйӗн": 552,
    "Мӗн": 553,
    "25": 554,
    "24": 555,
    "хуш@@": 556,
    "вӑй@@": 557,
    "лӑхӗ": 558,
    "ут@@": 559,
    "ур@@": 560,
    "Ҫапла": 561,
    "пӑр@@": 562,
    "кар@@": 563,
    "за@@": 564,
    "пурнӑҫ@@": 565,
    "шан@@": 566,
    "уйӑхӗн": 567,
    "хӑвӑр": 568,
    "тӗм": 569,
    "каллех": 570,
    "ы@@": 571,
    "ярса": 572,
    "тӑн@@": 573,
    "Том": 574,
    "лӗх": 575,
    "епле": 576,
    "тыт@@": 577,
    "тесен": 578,
    "лӑх@@": 579,
    "ленӗ": 580,
    "урӑх": 581,
    "сессӗн": 582,
    "акан": 583,
    "чу@@": 584,
    "унпа": 585,
    "атӑп": 586,
    "Акӑ": 587,
    "ҫа@@": 588,
    "чи@@": 589,
    "хи@@": 590,
    "со@@": 591,
    "лӑхне": 592,
    "кине": 593,
    "ке": 594,
    "юр@@": 595,
    "ленсе": 596,
    "чухлӗ": 597,
    "ай@@": 598,
    "ҫӗнӗ": 599,
    "хула": 600,
    "пуҫласа": 601,
    "ӗнчен": 602,
    "нех": 603,
    "ӑнлан@@": 604,
    "шӗ@@": 605,
    "то@@": 606,
    "ҫулхи": 607,
    "тӑчӗ": 608,
    "кӳ@@": 609,
    "Эпир": 610,
    "ҫыннисем": 611,
    "хӑйсем": 612,
    "лӗн": 613,
    "каларӗ": 614,
    "умне": 615,
    "ый@@": 616,
    "ӑннӑ": 617,
    "машкӑн": 618,
    "енне": 619,
    "ли": 620,
    "лат@@": 621,
    "пулман": 622,
    "ытла": 623,
    "ӑп": 624,
    "ҫы@@": 625,
    "тан@@": 626,
    "мӑн": 627,
    "Унтан": 628,
    "ҫӳ@@": 629,
    "ҫӑ": 630,
    "пӗлтер@@": 631,
    "нче": 632,
    "килӗш@@": 633,
    "вӗ": 634,
    "ытларах": 635,
    "ӑм@@": 636,
    "кӑтар@@": 637,
    "ӑм": 638,
    "хам": 639,
    "хал@@": 640,
    "тарма": 641,
    "ӗн@@": 642,
    "ҫит@@": 643,
    "пулӑш@@": 644,
    "26": 645,
    "аса": 646,
    "27": 647,
    "хӑвар@@": 648,
    "ячӗ": 649,
    "пур@@": 650,
    "хур@@": 651,
    "лек@@": 652,
    "аҫҫӗ": 653,
    "Л@@": 654,
    "хо@@": 655,
    "Б@@": 656,
    "ес": 657,
    "ты@@": 658,
    "чӑ@@": 659,
    "ус@@": 660,
    "пурӑнакан": 661,
    "уҫ@@": 662,
    "кӗрсе": 663,
    "Хӑй": 664,
    "илт@@": 665,
    "мне": 666,
    "туп@@": 667,
    "Халӗ": 668,
    "татса": 669,
    "никам": 670,
    "ени@@": 671,
    "Турра": 672,
    "рӑн": 673,
    "ксем": 674,
    "кая@@": 675,
    "тен@@": 676,
    "ҫинчи": 677,
    "таврӑн@@": 678,
    "рӑ@@": 679,
    "ҫынсене": 680,
    "тӑма": 681,
    "пӗчӗк": 682,
    "рине": 683,
    "шут@@": 684,
    "пӗри": 685,
    "ват@@": 686,
    "ран@@": 687,
    "калама": 688,
    "халӑха": 689,
    "тӑмӑр": 690,
    "Ман": 691,
    "нчи": 692,
    "ҫӗ": 693,
    "ас": 694,
    "патши": 695,
    "вырӑна": 696,
    "ӑл@@": 697,
    "лама": 698,
    "хушнӑ": 699,
    "туртса": 700,
    "скер": 701,
    "пама": 702,
    "калаҫ@@": 703,
    "им": 704,
    "30": 705,
    "усӑ": 706,
    "Г@@": 707,
    "савӑн@@": 708,
    "шу@@": 709,
    "сӑваплӑ": 710,
    "вӑхӑт": 711,
    "ани@@": 712,
    "ҫакӑ": 713,
    "ҫар": 714,
    "йӗн": 715,
    "28": 716,
    "кӗл@@": 717,
    "ун@@": 718,
    "палӑр@@": 719,
    "кӗнӗ": 720,
    "го@@": 721,
    "кӑларса": 722,
    "хушса": 723,
    "ши@@": 724,
    "пулнине": 725,
    "этем": 726,
    "тӑрса": 727,
    "пӗтӗмпех": 728,
    "Хӑвӑн": 729,
    "ҫурт": 730,
    "ҫунтарса": 731,
    "сенӗн": 732,
    "Ҫавӑнпа": 733,
    "курса": 734,
    "ҫӳре@@": 735,
    "му@@": 736,
    "да@@": 737,
    "тӗнче": 738,
    "сӑмахсене": 739,
    "чӗсене": 740,
    "Ю@@": 741,
    "чик@@": 742,
    "Эсир": 743,
    "курнӑ": 744,
    "ӑх@@": 745,
    "ччӑр": 746,
    "29": 747,
    "эй": 748,
    "чӗсем": 749,
    "ф": 750,
    "лет@@": 751,
    "Раҫҫей": 752,
    "мастӑп": 753,
    "нисене": 754,
    "яланах": 755,
    "тсем": 756,
    "тах": 757,
    "пулма": 758,
    "ӗмӗр@@": 759,
    "ци": 760,
    "хӑй@@": 761,
    "чӑн@@": 762,
    "пӑрах@@": 763,
    "ял": 764,
    "хутшӑн@@": 765,
    "пуҫ": 766,
    "На@@": 767,
    "тӗрӗс": 768,
    "ен": 769,
    "вӑй": 770,
    "ыр@@": 771,
    "халӑх@@": 772,
    "Ф@@": 773,
    "тӳрӗ": 774,
    "хӳ@@": 775,
    "тап@@": 776,
    "ҫил@@": 777,
    "ӗр@@": 778,
    "ҫыр@@": 779,
    "кул@@": 780,
    "илме": 781,
    "ашшӗ": 782,
    "Пу@@": 783,
    "хамӑр": 784,
    "ланнӑ": 785,
    "Ни@@": 786,
    "хатӗр@@": 787,
    "тне": 788,
    "килет": 789,
    "Ҫавӑн": 790,
    "юлнӑ": 791,
    "Са@@": 792,
    "кирек": 793,
    "патшалӑх": 794,
    "мӑ@@": 795,
    "енчен": 796,
    "ҫынни": 797,
    "вырӑн": 798,
    "ах": 799,
    "кӑмӑл@@": 800,
    "пай@@": 801,
    "лине": 802,
    "вут": 803,
    "тул@@": 804,
    "ҫап@@": 805,
    "апат": 806,
    "Ио@@": 807,
    "пултар@@": 808,
    "патӗнче": 809,
    "ит@@": 810,
    "ҫитер@@": 811,
    "ул@@": 812,
    "малтан": 813,
    "Сана": 814,
    "теҫҫӗ": 815,
    "рат@@": 816,
    "пилӗк": 817,
    "йӗрке@@": 818,
    "31": 819,
    "пуҫланӑ": 820,
    "маҫҫӗ": 821,
    "да": 822,
    "хӑварнӑ": 823,
    "мпа": 824,
    "ҫумне": 825,
    "терсе": 826,
    "тӑшман@@": 827,
    "терӗм": 828,
    "текен": 829,
    "Египет": 830,
    "мар@@": 831,
    "чар@@": 832,
    "пӗрне": 833,
    "вӑн": 834,
    "каҫ@@": 835,
    "ҫулта": 836,
    "парса": 837,
    "темӗн": 838,
    "пулас": 839,
    "нӑшӑн": 840,
    "малалла": 841,
    "чӗрӗ": 842,
    "хине": 843,
    "Пӗр": 844,
    "Д@@": 845,
    "тӑван@@": 846,
    "пех": 847,
    "хӑш": 848,
    "сӗр@@": 849,
    "йывӑҫ": 850,
    "йывӑр": 851,
    "хурас": 852,
    "кӑлар@@": 853,
    "ҫӑл@@": 854,
    "кала": 855,
    "Я@@": 856,
    "ҫке": 857,
    "нч@@": 858,
    "екен": 859,
    "хӑр@@": 860,
    "ук@@": 861,
    "тсе": 862,
    "мест": 863,
    "ывӑлӗсене": 864,
    "пырать": 865,
    "май@@": 866,
    "ӗмӗр": 867,
    "килсе": 868,
    "Ку@@": 869,
    "ч": 870,
    "хӑра@@": 871,
    "тӑрӑш@@": 872,
    "лаш@@": 873,
    "он": 874,
    "ша": 875,
    "пах": 876,
    "ӑҫта": 877,
    "рех": 878,
    "чӗн": 879,
    "Моисей": 880,
    "леме": 881,
    "ракан": 882,
    "сех": 883,
    "ҫар@@": 884,
    "ура": 885,
    "ҫирӗм": 886,
    "паллӑ": 887,
    "лать": 888,
    "юра@@": 889,
    "пула": 890,
    "ӳк@@": 891,
    "ҫичӗ": 892,
    "хӑва@@": 893,
    "чӗн@@": 894,
    "сар@@": 895,
    "сал@@": 896,
    "лех": 897,
    "ара": 898,
    "Ту@@": 899,
    "курӑн@@": 900,
    "ӗҫӗ@@": 901,
    "ҫырнӑ": 902,
    "тӗл@@": 903,
    "ратӑп": 904,
    "Хӑ@@": 905,
    "ҫамрӑк": 906,
    "раҫҫӗ": 907,
    "ор@@": 908,
    "ырӑ@@": 909,
    "чир@@": 910,
    "паян": 911,
    "пачӗ": 912,
    "вне": 913,
    "ӗҫне": 914,
    "пӗрремӗш": 915,
    "пӗрре": 916,
    "1@@": 917,
    "кайма": 918,
    "ҫавна": 919,
    "чух": 920,
    "тра": 921,
    "рать": 922,
    "про@@": 923,
    "Ху@@": 924,
    "ӑҫ@@": 925,
    "ҫуралнӑ": 926,
    "чӗпе": 927,
    "кен": 928,
    "ча": 929,
    "питех": 930,
    "тарать": 931,
    "нӑ@@": 932,
    "кил": 933,
    "Христос": 934,
    "вӗт": 935,
    "вилнӗ": 936,
    "чун@@": 937,
    "туй@@": 938,
    "алла": 939,
    "ӑс@@": 940,
    "ҫаврӑн@@": 941,
    "тур@@": 942,
    "рас": 943,
    "мел@@": 944,
    "ирттер@@": 945,
    "шы@@": 946,
    "фи@@": 947,
    "ҫи": 948,
    "ше@@": 949,
    "тив@@": 950,
    "сых@@": 951,
    "хӑл@@": 952,
    "он@@": 953,
    "Пирӗн": 954,
    "пӗлсе": 955,
    "кӑмӑллӑ": 956,
    "ҫӗрне": 957,
    "тӑвӗ": 958,
    "пулмалла": 959,
    "ик@@": 960,
    "тивӗҫлӗ": 961,
    "тавра": 962,
    "хӑйсене": 963,
    "ылтӑн": 964,
    "тӑк@@": 965,
    "№;": 966,
    "сан@@": 967,
    "пар": 968,
    "бо@@": 969,
    "фо@@": 970,
    "тал@@": 971,
    "мӗшӗ": 972,
    "Н@@": 973,
    "ҫирӗп": 974,
    "тупа": 975,
    "кӑтартнӑ": 976,
    "чӑваш": 977,
    "хӑваласа": 978,
    "суйласа": 979,
    "лӗх@@": 980,
    "леннӗ": 981,
    "ей@@": 982,
    "ги@@": 983,
    "ача@@": 984,
    "хӗрарӑм": 985,
    "ум@@": 986,
    "32": 987,
    "ҫе": 988,
    "пӗлӗ@@": 989,
    "план@@": 990,
    "тӑрат@@": 991,
    "еннелле": 992,
    "ыйт@@": 993,
    "мер@@": 994,
    "Иудея": 995,
    "мӗн@@": 996,
    "тӑра@@": 997,
    "темиҫе": 998,
    "тав": 999,
    "йӑх@@": 1000,
    "ҫӗрте": 1001,
    "тивӗҫ@@": 1002,
    "патшана": 1003,
    "Со@@": 1004,
    "Си@@": 1005,
    "ҫу": 1006,
    "шанса": 1007,
    "йӑл@@": 1008,
    "япала": 1009,
    "месӗр": 1010,
    "19@@": 1011,
    "чун": 1012,
    "хӗрхен@@": 1013,
    "тӑват@@": 1014,
    "пер@@": 1015,
    "чул": 1016,
    "тарчӗ": 1017,
    "пи": 1018,
    "ларӗ": 1019,
    "анӑ": 1020,
    "пурӑнӑҫ@@": 1021,
    "о": 1022,
    "мерӗ": 1023,
    "вӗлер@@": 1024,
    "сс@@": 1025,
    "Ра@@": 1026,
    "Ми@@": 1027,
    "священник": 1028,
    "мал@@": 1029,
    "енӗпе": 1030,
    "ӑпа": 1031,
    "шӑр@@": 1032,
    "тӑван": 1033,
    "ев": 1034,
    "тӗл": 1035,
    "тӑватӑ": 1036,
    "хытӑ": 1037,
    "курай@@": 1038,
    "кӗре@@": 1039,
    "виҫ@@": 1040,
    "?»": 1041,
    "хуп@@": 1042,
    "тӑва@@": 1043,
    "тем": 1044,
    "кне": 1045,
    "иккен": 1046,
    "лет": 1047,
    "га@@": 1048,
    "хушши": 1049,
    "тенкӗ": 1050,
    "ари@@": 1051,
    "8@@": 1052,
    "хамӑн": 1053,
    "чӑр@@": 1054,
    "рав@@": 1055,
    "нинчен": 1056,
    "ҫынсен": 1057,
    "ху": 1058,
    "тухрӗ": 1059,
    "иккӗмӗш": 1060,
    "пунк@@": 1061,
    "нӑччӗ": 1062,
    "мсем": 1063,
    "ҫӗк@@": 1064,
    "ял@@": 1065,
    "хут@@": 1066,
    "тытӑн@@": 1067,
    "Мал@@": 1068,
    "Ӑ@@": 1069,
    "часах": 1070,
    "вун@@": 1071,
    "рӑн@@": 1072,
    "пулта@@": 1073,
    "ере@@": 1074,
    "33": 1075,
    "пурӑнма": 1076,
    "Па@@": 1077,
    "ывӑлне": 1078,
    "укҫа": 1079,
    "хӗр": 1080,
    "ҫӳренӗ": 1081,
    "чӗнсе": 1082,
    "ине": 1083,
    "ҫӗнтер@@": 1084,
    "ят@@": 1085,
    "хӑн@@": 1086,
    "кунне": 1087,
    "каланине": 1088,
    "иртсе": 1089,
    "хулине": 1090,
    "тар": 1091,
    "пуҫларӗ": 1092,
    "кайран": 1093,
    "ушкӑн@@": 1094,
    "Хамӑн": 1095,
    "ҫавӑнта": 1096,
    "такан": 1097,
    "сси@@": 1098,
    "рай@@": 1099,
    "вӗсемпе": 1100,
    "ӗҫсем": 1101,
    "рас@@": 1102,
    "пил@@": 1103,
    "ҫула": 1104,
    "чен@@": 1105,
    "хар@@": 1106,
    "тӗ": 1107,
    "тӑвакан": 1108,
    "паракан": 1109,
    "Ки@@": 1110,
    "тытнӑ": 1111,
    "ыт@@": 1112,
    "халь": 1113,
    "Ко@@": 1114,
    "суя": 1115,
    "ӑс": 1116,
    "!»": 1117,
    "ӗҫлесе": 1118,
    "Ӗнтӗ": 1119,
    "трӗ": 1120,
    "пултарнӑ": 1121,
    "кай": 1122,
    "вырӑнӗ": 1123,
    "аталан@@": 1124,
    "Пӗ@@": 1125,
    "Иуда": 1126,
    "Ан@@": 1127,
    "ӳкӗ@@": 1128,
    "ҫа": 1129,
    "ют": 1130,
    "палӑртнӑ": 1131,
    "калакан": 1132,
    "ет@@": 1133,
    "ес@@": 1134,
    "таҫҫӗ": 1135,
    "парать": 1136,
    "кӑр@@": 1137,
    "тӳр@@": 1138,
    "итле@@": 1139,
    "ӗсен": 1140,
    "при@@": 1141,
    "лас": 1142,
    "хулана": 1143,
    "лаҫҫӗ": 1144,
    "кӗн": 1145,
    "йӗр": 1146,
    "ль": 1147,
    "ертсе": 1148,
    "аллӑ": 1149,
    "Ма@@": 1150,
    "Ваня": 1151,
    "ӗп": 1152,
    "шӑн@@": 1153,
    "сӗ": 1154,
    "Турри": 1155,
    "ссине": 1156,
    "иртнӗ": 1157,
    "вӑрҫӑ": 1158,
    "тӗлӗ@@": 1159,
    "тавра@@": 1160,
    "кӑшкӑр@@": 1161,
    "каҫар@@": 1162,
    "тӗн": 1163,
    "проро@@": 1164,
    "лисем": 1165,
    "кӗне@@": 1166,
    "ачасем": 1167,
    "асаплан@@": 1168,
    "Ар@@": 1169,
    "тасат@@": 1170,
    "пӳр@@": 1171,
    "юрат@@": 1172,
    "шӑм@@": 1173,
    "таран": 1174,
    "кипе": 1175,
    "тинӗс": 1176,
    "сут": 1177,
    "кӑтарт@@": 1178,
    "теле@@": 1179,
    "нчех": 1180,
    "мухтав@@": 1181,
    "кӑшкӑрса": 1182,
    "вунӑ": 1183,
    "анса": 1184,
    "Федерацийӗн": 1185,
    "сул@@": 1186,
    "ӗнчи": 1187,
    "ӑлса": 1188,
    "ҫын@@": 1189,
    "ятлӑ": 1190,
    "халӑхӗ": 1191,
    "тум@@": 1192,
    "пуҫлӑх@@": 1193,
    "кат@@": 1194,
    "зи@@": 1195,
    "лакан": 1196,
    "карти@@": 1197,
    "йыш@@": 1198,
    "есси": 1199,
    "вӗсенчен": 1200,
    "вырӑнта": 1201,
    "ӑшне": 1202,
    "чуп@@": 1203,
    "ракан@@": 1204,
    "кана": 1205,
    "Мӗншӗн": 1206,
    "».": 1207,
    "34": 1208,
    "юлашки": 1209,
    "самччӗ": 1210,
    "рах@@": 1211,
    "вӗсенӗн": 1212,
    "би@@": 1213,
    "атӑр": 1214,
    "ҫылӑх@@": 1215,
    "екен@@": 1216,
    "ве": 1217,
    "35": 1218,
    "ҫылӑха": 1219,
    "ста@@": 1220,
    "мӗҫ": 1221,
    "лу@@": 1222,
    "ап@@": 1223,
    "хура": 1224,
    "ирӗк": 1225,
    "ӗл@@": 1226,
    "чченех": 1227,
    "арӑм": 1228,
    "Тӑ@@": 1229,
    "сы@@": 1230,
    "пычӗ": 1231,
    "кӗтсе": 1232,
    "кӗмӗл": 1233,
    "ӑк@@": 1234,
    "пата": 1235,
    "атпӑр": 1236,
    "сӑмахне": 1237,
    "сти@@": 1238,
    "фа@@": 1239,
    "турт@@": 1240,
    "лӗхе": 1241,
    "ем@@": 1242,
    "гра@@": 1243,
    "выльӑх": 1244,
    "ҫӑвар@@": 1245,
    "выр@@": 1246,
    "Та@@": 1247,
    "ывӑ@@": 1248,
    "/": 1249,
    "ҫапса": 1250,
    "сӑмахсемпе": 1251,
    "хӑраса": 1252,
    "Кам": 1253,
    "сӑмахсем": 1254,
    "апла": 1255,
    "Унта": 1256,
    "ҫе@@": 1257,
    "тӗп@@": 1258,
    "ратӑн": 1259,
    "касса": 1260,
    "витӗр": 1261,
    "тме": 1262,
    "з": 1263,
    "вы@@": 1264,
    "Вӑр@@": 1265,
    "халӑхне": 1266,
    "нӗ@@": 1267,
    "куҫ": 1268,
    "ала": 1269,
    "ӗҫӗ": 1270,
    "ҫитрӗ": 1271,
    "тин": 1272,
    "от@@": 1273,
    "Ӗ@@": 1274,
    "хӑвна": 1275,
    "рисем": 1276,
    "кӗсем": 1277,
    "ӳстер@@": 1278,
    "шухӑш": 1279,
    "саккун@@": 1280,
    "ник": 1281,
    "кура": 1282,
    "атӑн": 1283,
    "Се@@": 1284,
    "чӑк": 1285,
    "калатӑп": 1286,
    "Патша": 1287,
    "ӳт": 1288,
    "упра@@": 1289,
    "сӗм@@": 1290,
    "куҫӗ": 1291,
    "ҫитсе": 1292,
    "уншӑн": 1293,
    "улӑштарас": 1294,
    "вал@@": 1295,
    "Ҫук": 1296,
    "ҫаврӑнса": 1297,
    "сӑмах@@": 1298,
    "пус@@": 1299,
    "пит": 1300,
    "йӗпе": 1301,
    "То@@": 1302,
    "хӑр": 1303,
    "сыв@@": 1304,
    "килӗ": 1305,
    "ирт@@": 1306,
    "шк@@": 1307,
    "унран": 1308,
    "тра@@": 1309,
    "пуҫлӑхӗ": 1310,
    "виҫҫӗмӗш": 1311,
    "тай@@": 1312,
    "пре@@": 1313,
    "патша@@": 1314,
    "йӗркесӗр": 1315,
    "еҫҫӗ": 1316,
    "Го@@": 1317,
    "чарӑнса": 1318,
    "тӑрӑ@@": 1319,
    "лах": 1320,
    "тӑвас": 1321,
    "лай@@": 1322,
    "кансем": 1323,
    "арӑ@@": 1324,
    "Патшалӑх": 1325,
    "хуравласа": 1326,
    "рес@@": 1327,
    "кен@@": 1328,
    "ҫӑкӑр": 1329,
    "уя@@": 1330,
    "сиксе": 1331,
    "район@@": 1332,
    "курма": 1333,
    "иккенне": 1334,
    "ҫухал@@": 1335,
    "шал@@": 1336,
    "хӗрӗ": 1337,
    "хӑруш@@": 1338,
    "лӑхпа": 1339,
    "ксене": 1340,
    "енче": 1341,
    "хир@@": 1342,
    "сса": 1343,
    "ск@@": 1344,
    "рен@@": 1345,
    "вла@@": 1346,
    "рт@@": 1347,
    "кӑларнӑ": 1348,
    "кон@@": 1349,
    "кин": 1350,
    "Тата": 1351,
    "туха@@": 1352,
    "мах": 1353,
    "ларт@@": 1354,
    "алӑ": 1355,
    "Р@@": 1356,
    "юх@@": 1357,
    "ӳкнӗ": 1358,
    "ним": 1359,
    "тӑрӑр": 1360,
    "ӑмӑр@@": 1361,
    "тнӑ": 1362,
    "мра": 1363,
    "малтанхи": 1364,
    "нумай@@": 1365,
    "пӗт@@": 1366,
    "тивӗҫтер@@": 1367,
    "килне": 1368,
    "ван@@": 1369,
    "ҫисем": 1370,
    "ҫил": 1371,
    "ҫапах": 1372,
    "ҫак@@": 1373,
    "Ҫӳлхуҫаран": 1374,
    "Ҫӳлхуҫамӑр": 1375,
    "хӑпар@@": 1376,
    "хатӗр": 1377,
    "ҫавӑ": 1378,
    "Ҫакна": 1379,
    "чч@@": 1380,
    "хама": 1381,
    "халӑхсем": 1382,
    "уйӑрса": 1383,
    "рӗ@@": 1384,
    "йывӑр@@": 1385,
    "аван": 1386,
    "чарӑн@@": 1387,
    "вер@@": 1388,
    "ӳкер@@": 1389,
    "тор": 1390,
    "пӑрахса": 1391,
    "арҫын": 1392,
    "тем@@": 1393,
    "йӗсене": 1394,
    "аран": 1395,
    "Вӗсене": 1396,
    "Ҫур@@": 1397,
    "кӑла@@": 1398,
    "пӗлтернӗ": 1399,
    "ллӗ": 1400,
    "тӑраҫҫӗ": 1401,
    "тсене": 1402,
    "таврӑннӑ": 1403,
    "ам@@": 1404,
    "Ы@@": 1405,
    "Тепӗр": 1406,
    "хӗрлӗ": 1407,
    "тунине": 1408,
    "пӑхнӑ": 1409,
    "пуҫӗ": 1410,
    "латӑп": 1411,
    "ӑх": 1412,
    "тир@@": 1413,
    "орган@@": 1414,
    "марӑм": 1415,
    "ларчӗ": 1416,
    "лав@@": 1417,
    "кӑн": 1418,
    "вӗпе": 1419,
    "ӑпӑр": 1420,
    "ҫыннӑн": 1421,
    "пӗтӗмӗшпе": 1422,
    "пыракан": 1423,
    "мат@@": 1424,
    "ба@@": 1425,
    "Ие@@": 1426,
    "лартса": 1427,
    "Иван": 1428,
    "36": 1429,
    "ӗсемпе": 1430,
    "тархас@@": 1431,
    "рӑм@@": 1432,
    "выля@@": 1433,
    "Ну": 1434,
    "Иерусалима": 1435,
    "З@@": 1436,
    "ҫулӑм": 1437,
    "шута": 1438,
    "пӗлмен": 1439,
    "патшалӑх@@": 1440,
    "лле": 1441,
    "кӗлет@@": 1442,
    "ала@@": 1443,
    "Те@@": 1444,
    "ывӑлӗсен": 1445,
    "хӗпӗр@@": 1446,
    "уйӑх@@": 1447,
    "пӑрахнӑ": 1448,
    "мӑн@@": 1449,
    "вырӑнти": 1450,
    "ҫыннисене": 1451,
    "хӑват@@": 1452,
    "40": 1453,
    "ье@@": 1454,
    "ыйтнӑ": 1455,
    "чупса": 1456,
    "пултарать": 1457,
    "лӑр": 1458,
    "килӗшӳллӗн": 1459,
    "айне": 1460,
    "сто@@": 1461,
    "рӑмӑр": 1462,
    "пах@@": 1463,
    "вӗҫсе": 1464,
    "аслӑ@@": 1465,
    "Пат@@": 1466,
    "ӗҫӗсене": 1467,
    "ятне": 1468,
    "кӑш@@": 1469,
    "кӑ": 1470,
    "ирсӗр@@": 1471,
    "хӑвӑрт": 1472,
    "лӑрах": 1473,
    "лӑм": 1474,
    "кӳнӗ": 1475,
    "кӑтартса": 1476,
    "тернӗ": 1477,
    "таш@@": 1478,
    "лӑплан@@": 1479,
    "Саул": 1480,
    "ӑк": 1481,
    "ҫурал@@": 1482,
    "юн": 1483,
    "хурал@@": 1484,
    "татӑп": 1485,
    "суй@@": 1486,
    "сасси": 1487,
    "пӗтнӗ": 1488,
    "ҫых@@": 1489,
    "ҫимӗҫ": 1490,
    "чӑнах": 1491,
    "сахал": 1492,
    "Сан@@": 1493,
    "Ли@@": 1494,
    "тер": 1495,
    "качча": 1496,
    "вӑхӑтӗнче": 1497,
    "Иаков": 1498,
    "ҫитӗн@@": 1499,
    "тӑвать": 1500,
    "тет@@": 1501,
    "каять": 1502,
    "ҫавӑ@@": 1503,
    "чике": 1504,
    "стан@@": 1505,
    "парни": 1506,
    "нӑн": 1507,
    "лени": 1508,
    "кисене": 1509,
    "хисеп@@": 1510,
    "тӗлӗшпе": 1511,
    "тавӑ@@": 1512,
    "кер": 1513,
    "иччен": 1514,
    "амӑшӗ": 1515,
    "ӗҫле@@": 1516,
    "ячӗпе": 1517,
    "мӑр": 1518,
    "леш": 1519,
    "вырт@@": 1520,
    "ҫутӑ": 1521,
    "Ҫакӑн": 1522,
    "шухӑшласа": 1523,
    "улӑш@@": 1524,
    "тӗлӗнмелле": 1525,
    "тетӗп": 1526,
    "пӑхӑн@@": 1527,
    "кене": 1528,
    "йӑлтах": 1529,
    "ӑрӑ@@": 1530,
    "хӑрушӑ": 1531,
    "хучӗ": 1532,
    "пурнӑҫ": 1533,
    "ге@@": 1534,
    "уҫса": 1535,
    "мух@@": 1536,
    "ирӗк@@": 1537,
    "вӑхӑ@@": 1538,
    "Мересьев": 1539,
    "Иерусалим": 1540,
    "ӑшӗнче": 1541,
    "хӳтӗ@@": 1542,
    "сӑн": 1543,
    "саккун": 1544,
    "пуян@@": 1545,
    "арӑм@@": 1546,
    "Мӗнле": 1547,
    "халал@@": 1548,
    "уй@@": 1549,
    "тарах": 1550,
    "пулни": 1551,
    "калаҫма": 1552,
    "выртнӑ": 1553,
    "хули@@": 1554,
    "тӳрех": 1555,
    "По@@": 1556,
    "Й@@": 1557,
    "Ҫуртне": 1558,
    "шне": 1559,
    "чух@@": 1560,
    "уйӑх": 1561,
    "пула@@": 1562,
    "йӗрӗ@@": 1563,
    "им@@": 1564,
    "Вӗсен": 1565,
    "тырӑ": 1566,
    "тарас": 1567,
    "сам": 1568,
    "али@@": 1569,
    "шыва": 1570,
    "хап@@": 1571,
    "тӳле@@": 1572,
    "тӗмӗр": 1573,
    "маншӑн": 1574,
    "лайӑх@@": 1575,
    "кайрӗҫ": 1576,
    "ирӗ@@": 1577,
    "евӗрлӗ": 1578,
    "вырнаҫ@@": 1579,
    "васка@@": 1580,
    "алли@@": 1581,
    "Кӗ@@": 1582,
    "...": 1583,
    "тӑрӗ": 1584,
    "нӑскер": 1585,
    "Тӗ@@": 1586,
    "ҫитиччен": 1587,
    "тӑрӑх@@": 1588,
    "саккунӗн": 1589,
    "нӑй": 1590,
    "мешкӗн": 1591,
    "кӑшт": 1592,
    "шурӑ": 1593,
    "сасартӑк": 1594,
    "Пуҫ@@": 1595,
    "А": 1596,
    "ҫӗклесе": 1597,
    "ссипе": 1598,
    "пӗтерсе": 1599,
    "патнелле": 1600,
    "вӑрҫ@@": 1601,
    "алли": 1602,
    "Ва@@": 1603,
    "ҫӗклен@@": 1604,
    "ччӗр": 1605,
    "тискер": 1606,
    "сӑмаха": 1607,
    "парне@@": 1608,
    "паллаш@@": 1609,
    "ире": 1610,
    "тытӑнчӗ": 1611,
    "Моисее": 1612,
    "ӗҫлеме": 1613,
    "ӑл": 1614,
    "ҫыру@@": 1615,
    "ырӑлӑх": 1616,
    "тӗнчен": 1617,
    "тухать": 1618,
    "пӗ": 1619,
    "кӗсене": 1620,
    "Су@@": 1621,
    "38": 1622,
    "37": 1623,
    "ӑма": 1624,
    "ӑва@@": 1625,
    "ҫӗртен": 1626,
    "ҫывӑх": 1627,
    "Ҫи@@": 1628,
    "шӑл@@": 1629,
    "ца": 1630,
    "улшӑнусем": 1631,
    "тӑракан@@": 1632,
    "тас": 1633,
    "пӑрӑн@@": 1634,
    "кӑштах": 1635,
    "юратнӑ": 1636,
    "шутласа": 1637,
    "сик@@": 1638,
    "вӗлернӗ": 1639,
    "аннӑ": 1640,
    "9@@": 1641,
    "пӑл@@": 1642,
    "акан@@": 1643,
    "Ҫӳлти": 1644,
    "юн@@": 1645,
    "ури": 1646,
    "лӗхне": 1647,
    "ларса": 1648,
    "калаҫа@@": 1649,
    "йывӑҫ@@": 1650,
    "ӑнах": 1651,
    "ҫӗрӗ": 1652,
    "ҫылӑх": 1653,
    "патши@@": 1654,
    "лла": 1655,
    "Тур@@": 1656,
    "ҫулӗ": 1657,
    "хӑҫан": 1658,
    "сшӑн": 1659,
    "пӗтернӗ": 1660,
    "пайне": 1661,
    "маллине": 1662,
    "лисене": 1663,
    "ларакан": 1664,
    "из@@": 1665,
    "Соломон": 1666,
    "Га@@": 1667,
    "ҫӗсем": 1668,
    "ӑран": 1669,
    "ҫитӗ": 1670,
    "шыраса": 1671,
    "хурса": 1672,
    "рал@@": 1673,
    "пан@@": 1674,
    "кӳр@@": 1675,
    "кунӗ": 1676,
    "килчӗ": 1677,
    "каларӑм": 1678,
    "ӑслӑ": 1679,
    "хӑшӗ": 1680,
    "рӗн": 1681,
    "ратпӑр": 1682,
    "вӑйлӑ": 1683,
    "аса@@": 1684,
    "хуй@@": 1685,
    "тӑ": 1686,
    "сӳ@@": 1687,
    "кӗчӗ": 1688,
    "кайӑк": 1689,
    "вӑрман@@": 1690,
    "вилӗм": 1691,
    "Ха@@": 1692,
    "ҫун@@": 1693,
    "хур": 1694,
    "сасӑ": 1695,
    "масӑрах": 1696,
    "аш@@": 1697,
    "Иерусалимра": 1698,
    "чылай": 1699,
    "сенчи": 1700,
    "патӗнчен": 1701,
    "мран": 1702,
    "лӗхӗ@@": 1703,
    "кӗлӗ": 1704,
    "кунӗнче": 1705,
    "кама": 1706,
    "ҫҫ@@": 1707,
    "эрех": 1708,
    "савӑ@@": 1709,
    "пуҫлан@@": 1710,
    "проек@@": 1711,
    "ырат@@": 1712,
    "тӑп": 1713,
    "кас@@": 1714,
    "илтнӗ": 1715,
    "или@@": 1716,
    "ӗм": 1717,
    "сӗтел": 1718,
    "Саваоф": 1719,
    "Пӗтӗм": 1720,
    "ҫывӑ@@": 1721,
    "ҫав@@": 1722,
    "ян@@": 1723,
    "уйрӑм": 1724,
    "таракан": 1725,
    "сап@@": 1726,
    "пӑш@@": 1727,
    "пра@@": 1728,
    "нчӗ": 1729,
    "кисем": 1730,
    "г": 1731,
    "Ун@@": 1732,
    "ҫурт@@": 1733,
    "хӗвел": 1734,
    "спорт": 1735,
    "пӗчӗк@@": 1736,
    "пулӑшу": 1737,
    "иле@@": 1738,
    "Ла@@": 1739,
    "Иа@@": 1740,
    "ҫӳреме": 1741,
    "чӗре@@": 1742,
    "чы@@": 1743,
    "чаплӑ": 1744,
    "мӗшӗнчи": 1745,
    "лӗҫ": 1746,
    "атчӗ": 1747,
    "Турру": 1748,
    "Иудей@@": 1749,
    "ҫавӑнтах": 1750,
    "темле": 1751,
    "саман@@": 1752,
    "вич": 1753,
    "арӑмӗ": 1754,
    "аллинчен": 1755,
    "ҫӑмӑл@@": 1756,
    "чӗри": 1757,
    "уйӑр@@": 1758,
    "тти@@": 1759,
    "тав@@": 1760,
    "статьян": 1761,
    "пӗлнӗ": 1762,
    "лайӑхрах": 1763,
    "Ме@@": 1764,
    "Кунта": 1765,
    "ӑмӑр": 1766,
    "ҫӗрӗнче": 1767,
    "ҫулӗ@@": 1768,
    "шав@@": 1769,
    "хушшинчен": 1770,
    "пӑхрӗ": 1771,
    "куртӑм": 1772,
    "вӑтӑр": 1773,
    "тре@@": 1774,
    "республика": 1775,
    "пӗрех": 1776,
    "ну@@": 1777,
    "ксен": 1778,
    "ватӑ": 1779,
    "Пур@@": 1780,
    "Ели@@": 1781,
    "хутчен": 1782,
    "улт@@": 1783,
    "тулли": 1784,
    "тим@@": 1785,
    "ство": 1786,
    "сак@@": 1787,
    "мӗшӗнче": 1788,
    "меҫҫӗ": 1789,
    "лекен": 1790,
    "каласан": 1791,
    "ӗшӗн": 1792,
    "яна": 1793,
    "утса": 1794,
    "тӑвӑр": 1795,
    "турӑ@@": 1796,
    "сӑма@@": 1797,
    "рӗм": 1798,
    "кер@@": 1799,
    "капитан": 1800,
    "ҫамрӑ@@": 1801,
    "хушшине": 1802,
    "саккунне": 1803,
    "ля@@": 1804,
    "лен": 1805,
    "йышӑннӑ": 1806,
    "санпа": 1807,
    "пурӑнакансем": 1808,
    "тӑмалла": 1809,
    "тнӗ": 1810,
    "Хам": 1811,
    "ҫем@@": 1812,
    "священни@@": 1813,
    "нах": 1814,
    "маях": 1815,
    "кӑр": 1816,
    "йӗсем": 1817,
    "39": 1818,
    "ӗмӗ@@": 1819,
    "хӗн": 1820,
    "хӑвӑра": 1821,
    "рисене": 1822,
    "рам": 1823,
    "парӑп": 1824,
    "нимӗнле": 1825,
    "манран": 1826,
    "кулса": 1827,
    "иллӗ": 1828,
    "вар": 1829,
    "Апла": 1830,
    "ӳксе": 1831,
    "ҫӳрекен": 1832,
    "ят": 1833,
    "сылтӑм": 1834,
    "каҫ": 1835,
    "ия": 1836,
    "ҫӗрле": 1837,
    "ҫам@@": 1838,
    "ыйтрӗ": 1839,
    "фа": 1840,
    "пӑхӑр": 1841,
    "пуррине": 1842,
    "ня@@": 1843,
    "мӑнаҫ@@": 1844,
    "лӗк": 1845,
    "Сан": 1846,
    "Ман@@": 1847,
    "41": 1848,
    "ҫывӑх@@": 1849,
    "яр@@": 1850,
    "тӑран@@": 1851,
    "тусем": 1852,
    "турӗ": 1853,
    "выльӑх@@": 1854,
    "ар": 1855,
    "анне": 1856,
    "айӗнче": 1857,
    "ӑсем": 1858,
    "ҫӑм@@": 1859,
    "хӗҫ": 1860,
    "тухма": 1861,
    "куна": 1862,
    "ҫур": 1863,
    "тес": 1864,
    "пултарай@@": 1865,
    "ду@@": 1866,
    ").": 1867,
    "ӑш": 1868,
    "хулинче": 1869,
    "пыма": 1870,
    "пурӑнмалли": 1871,
    "пере@@": 1872,
    "мӗсем": 1873,
    "илет": 1874,
    "ӑшӗ": 1875,
    "ҫӗсене": 1876,
    "ҫавӑрса": 1877,
    "сир@@": 1878,
    "парӑр": 1879,
    "пуҫла@@": 1880,
    "пушӑ": 1881,
    "Ҫӗр@@": 1882,
    "танлаш@@": 1883,
    "пӑхӑнса": 1884,
    "малтанах": 1885,
    "лешӗ": 1886,
    "иҫӗм": 1887,
    "бюдже@@": 1888,
    "атте": 1889,
    "Израилӗн": 1890,
    "ҫӑсем": 1891,
    "чер@@": 1892,
    "усал@@": 1893,
    "тытӑннӑ": 1894,
    "нихӑҫан": 1895,
    "инкек": 1896,
    "алӑк": 1897,
    "Кал@@": 1898,
    "Ҫы@@": 1899,
    "серен": 1900,
    "санах": 1901,
    "нер@@": 1902,
    "ламан": 1903,
    "кӗн@@": 1904,
    "асӑн@@": 1905,
    "Тӳ@@": 1906,
    "упӑш@@": 1907,
    "ултӑ": 1908,
    "сехет": 1909,
    "ракансем": 1910,
    "пӑшӑрхан@@": 1911,
    "пир@@": 1912,
    "мастӑн": 1913,
    "ков": 1914,
    "кла@@": 1915,
    "итлесе": 1916,
    "ем": 1917,
    "Петр": 1918,
    "чен": 1919,
    "чатӑр@@": 1920,
    "хул@@": 1921,
    "хаклӑ": 1922,
    "скер@@": 1923,
    "пӳлӗ@@": 1924,
    "ван": 1925,
    "асап": 1926,
    "пӑхма": 1927,
    "7@@": 1928,
    "хӑтлан@@": 1929,
    "ух@@": 1930,
    "тус@@": 1931,
    "тель@@": 1932,
    "сыхласа": 1933,
    "пӗрлеш@@": 1934,
    "патшине": 1935,
    "Кил@@": 1936,
    "Вӑ@@": 1937,
    "Ви@@": 1938,
    "ӑсат@@": 1939,
    "ҫыннине": 1940,
    "Ҫа@@": 1941,
    "тӑхӑн@@": 1942,
    "тӑм@@": 1943,
    "програм@@": 1944,
    "никама": 1945,
    "марӗҫ": 1946,
    "кӗтӳ@@": 1947,
    "калаҫса": 1948,
    "Ре@@": 1949,
    "ӑслӑ@@": 1950,
    "ҫӗм@@": 1951,
    "ҫура@@": 1952,
    "эс": 1953,
    "ывӑл": 1954,
    "хавас@@": 1955,
    "участо@@": 1956,
    "сук@@": 1957,
    "кӗт@@": 1958,
    "кура@@": 1959,
    "Ҫапах": 1960,
    "яхӑн": 1961,
    "тран": 1962,
    "кир@@": 1963,
    "илтӗм": 1964,
    "вӗренекен@@": 1965,
    "0@@": 1966,
    ".»;": 1967,
    "ҫыхӑн@@": 1968,
    "ҫисе": 1969,
    "уҫӑ": 1970,
    "тӑхӑннӑ": 1971,
    "социаллӑ": 1972,
    "пӗлетӗп": 1973,
    "местӗп": 1974,
    "маннине": 1975,
    "ис@@": 1976,
    "Хӑй@@": 1977,
    "ӑҫ": 1978,
    "ҫухат@@": 1979,
    "ҫавӑр@@": 1980,
    "ыйтса": 1981,
    "хӗрӗх": 1982,
    "скерсем": 1983,
    "лӑхлӑ": 1984,
    "кӗме": 1985,
    "илем@@": 1986,
    "вӗрент@@": 1987,
    "вӑхӑтрах": 1988,
    "ҫӗрӗн": 1989,
    "шыв@@": 1990,
    "шай@@": 1991,
    "тӳс@@": 1992,
    "сӗн@@": 1993,
    "рипе": 1994,
    "пине": 1995,
    "кӗпе": 1996,
    "кӑл@@": 1997,
    "курсассӑн": 1998,
    "хыпар": 1999,
    "хуҫалӑх": 2000,
    "хуйхӑ": 2001,
    "тытӑ@@": 2002,
    "тара@@": 2003,
    "лерӗ": 2004,
    "ларать": 2005,
    "кӗртнӗ": 2006,
    "Фе@@": 2007,
    "Ен": 2008,
    "ҫыхӑннӑ": 2009,
    "ялта": 2010,
    "шар": 2011,
    "сле@@": 2012,
    "пулӗҫ": 2013,
    "кӑра": 2014,
    "илей@@": 2015,
    "Аслӑ": 2016,
    ",]": 2017,
    "шӑпах": 2018,
    "шак@@": 2019,
    "чик": 2020,
    "тӑх@@": 2021,
    "пӑс@@": 2022,
    "пророк": 2023,
    "нелле": 2024,
    "илемлӗ": 2025,
    "Ырӑ": 2026,
    "Пӗр@@": 2027,
    "Вавилон": 2028,
    "42": 2029,
    "хаса": 2030,
    "тӑкнӑ": 2031,
    "туян@@": 2032,
    "тапра@@": 2033,
    "ски": 2034,
    "пен@@": 2035,
    "Иосиф": 2036,
    "Израиле": 2037,
    "2012": 2038,
    "ҫне": 2039,
    "хушшинчи": 2040,
    "хисе@@": 2041,
    "фе@@": 2042,
    "тӗлӗн@@": 2043,
    "тӑвӑп": 2044,
    "телейлӗ": 2045,
    "мсене": 2046,
    "кӳрекен": 2047,
    "вна": 2048,
    "аҫ@@": 2049,
    "Вӗрен@@": 2050,
    "ӳл@@": 2051,
    "Ҫын@@": 2052,
    "чӗлхе@@": 2053,
    "сла@@": 2054,
    "кӑпа": 2055,
    "ди": 2056,
    "ӗмӗрлӗхе": 2057,
    "ҫуна@@": 2058,
    "ҫиме": 2059,
    "тавӑр@@": 2060,
    "лени@@": 2061,
    "ланине": 2062,
    "ачана": 2063,
    "50": 2064,
    "Ҫакӑ": 2065,
    "яма": 2066,
    "улпу@@": 2067,
    "тӑк": 2068,
    "тухӑҫ@@": 2069,
    "пулӑ": 2070,
    "ларӑм": 2071,
    "курман": 2072,
    "вӑрттӑн": 2073,
    "Хӑйне": 2074,
    "Пул@@": 2075,
    "Ав@@": 2076,
    "ҫӗнче": 2077,
    "эп": 2078,
    "пурӑнать": 2079,
    "пуль": 2080,
    "парас": 2081,
    "лӑхӗпе": 2082,
    "лсе": 2083,
    "евӗр": 2084,
    "),": 2085,
    "ҫӗпе": 2086,
    "ҫаплах": 2087,
    "хуҫалӑх@@": 2088,
    "пытар@@": 2089,
    "пуринчен": 2090,
    "плӑ": 2091,
    "манпа": 2092,
    "кӑвак": 2093,
    "кая": 2094,
    "йы@@": 2095,
    "Чу@@": 2096,
    "Ти@@": 2097,
    "ӗҫлекен": 2098,
    "ҫитсессӗн": 2099,
    "шывӗ": 2100,
    "хапха": 2101,
    "хак@@": 2102,
    "тпа": 2103,
    "ров@@": 2104,
    "памалла": 2105,
    "масан": 2106,
    "интерес@@": 2107,
    "вӗн": 2108,
    "Сирӗн": 2109,
    "Петрович": 2110,
    "Паллах": 2111,
    "Иисуса": 2112,
    "Аарон": 2113,
    "чуру@@": 2114,
    "мӗр@@": 2115,
    "киле": 2116,
    "вӗрентсе": 2117,
    "вилсе": 2118,
    "ачасене": 2119,
    "Ле@@": 2120,
    "Гек": 2121,
    "ҫакӑн@@": 2122,
    "ё@@": 2123,
    "хӑнӑх@@": 2124,
    "хаяр@@": 2125,
    "тӑшман": 2126,
    "тӑлӑх": 2127,
    "тетӗн": 2128,
    "текен@@": 2129,
    "пул": 2130,
    "персе": 2131,
    "нар@@": 2132,
    "мӗпе": 2133,
    "айлӑ@@": 2134,
    "Ҫӗр": 2135,
    "яр": 2136,
    "час": 2137,
    "пол@@": 2138,
    "есшӗн": 2139,
    "ден@@": 2140,
    "авто@@": 2141,
    "Республи@@": 2142,
    "Ге@@": 2143,
    "юпа": 2144,
    "тӗлӗшӗнчен": 2145,
    "тура@@": 2146,
    "пӗтӗмпе": 2147,
    "патӑма": 2148,
    "кӗрет": 2149,
    "кансене": 2150,
    "ей": 2151,
    "ҫӗрӗнчен": 2152,
    "пух@@": 2153,
    "малашне": 2154,
    "кайӑр": 2155,
    "иль@@": 2156,
    "вӑн@@": 2157,
    "бу@@": 2158,
    "аль@@": 2159,
    "Тен": 2160,
    "хулара": 2161,
    "проф@@": 2162,
    "мӑр@@": 2163,
    "асси": 2164,
    "43": 2165,
    "ӑри": 2166,
    "шку@@": 2167,
    "хӑватлӑ": 2168,
    "тӳрӗ@@": 2169,
    "ть": 2170,
    "нет": 2171,
    "манни": 2172,
    "лне": 2173,
    "аллипе": 2174,
    "Канашӗн": 2175,
    "!..": 2176,
    "ҫӳллӗ": 2177,
    "ҫуртне": 2178,
    "тӗн@@": 2179,
    "тӗм@@": 2180,
    "талла": 2181,
    "паллах": 2182,
    "нӗшӗн": 2183,
    "лес": 2184,
    "калаҫнӑ": 2185,
    "етӗп": 2186,
    "Хӗ@@": 2187,
    "шыра@@": 2188,
    "тр@@": 2189,
    "ст": 2190,
    "сарла@@": 2191,
    "пулмӗ": 2192,
    "кӗрт@@": 2193,
    "кунсенче": 2194,
    "кре@@": 2195,
    "йӑтса": 2196,
    "вӗр@@": 2197,
    "ӗҫсене": 2198,
    "ҫӗнӗрен": 2199,
    "ҫийӗ@@": 2200,
    "хӗрне": 2201,
    "тӑнине": 2202,
    "ссе": 2203,
    "пуҫлӑх": 2204,
    "майлӑ": 2205,
    "лаша@@": 2206,
    "Про@@": 2207,
    "2@@": 2208,
    "ҫӑм": 2209,
    "юса@@": 2210,
    "хӗрри@@": 2211,
    "хӑма": 2212,
    "тӗнч@@": 2213,
    "семччӗ": 2214,
    "пӗринпе": 2215,
    "нччен": 2216,
    "мухтан@@": 2217,
    "ӑмра": 2218,
    "ҫыру": 2219,
    "халех": 2220,
    "тупӑш@@": 2221,
    "патшара": 2222,
    "мине": 2223,
    "лекен@@": 2224,
    "ир": 2225,
    "Туррӑн": 2226,
    "хӑра": 2227,
    "так@@": 2228,
    "ор": 2229,
    "кӗс@@": 2230,
    "ви": 2231,
    "айӑп@@": 2232,
    "хав@@": 2233,
    "тине": 2234,
    "темӗнле": 2235,
    "стар@@": 2236,
    "пӗрин": 2237,
    "пӗлет": 2238,
    "мӑш@@": 2239,
    "илӗр@@": 2240,
    "за": 2241,
    "аяк@@": 2242,
    "аван@@": 2243,
    "Му@@": 2244,
    "тӑра": 2245,
    "тупай@@": 2246,
    "туйӑнчӗ": 2247,
    "си": 2248,
    "пичӗ": 2249,
    "мину@@": 2250,
    "каяс": 2251,
    "алӑ@@": 2252,
    "Ц@@": 2253,
    "Туррӑмӑр": 2254,
    "Владимир": 2255,
    "ывӑлӗн": 2256,
    "хӗррине": 2257,
    "хаҫат": 2258,
    "тӗрӗ@@": 2259,
    "тӗлне": 2260,
    "сасӑ@@": 2261,
    "самолё@@": 2262,
    "пуҫтар@@": 2263,
    "пачах": 2264,
    "лӗсем": 2265,
    "курӑ@@": 2266,
    "иккӗ@@": 2267,
    "ерех": 2268,
    "ашшӗ@@": 2269,
    "аллӑ@@": 2270,
    "ҫумӑр": 2271,
    "ян": 2272,
    "хыттӑн": 2273,
    "хат@@": 2274,
    "сӑл@@": 2275,
    "сер@@": 2276,
    "кӳме": 2277,
    "кӑмӑл": 2278,
    "йӗрке": 2279,
    "ачи@@": 2280,
    "Паян": 2281,
    "юхан@@": 2282,
    "тру@@": 2283,
    "сен@@": 2284,
    "савӑнса": 2285,
    "пуҫлӑхӗсем": 2286,
    "пултару@@": 2287,
    "парӗ": 2288,
    "нихҫан": 2289,
    "йӑхӗнчен": 2290,
    "ипе": 2291,
    "ик": 2292,
    "Кар@@": 2293,
    "ҫулӑ@@": 2294,
    "ылхан@@": 2295,
    "чура@@": 2296,
    "урӑхла": 2297,
    "пӗлтерӗшлӗ": 2298,
    "илес": 2299,
    "Во@@": 2300,
    "ӗк": 2301,
    "тӗҫ": 2302,
    "тӑчӗҫ": 2303,
    "ски@@": 2304,
    "палӑртса": 2305,
    "курӑнса": 2306,
    "ком@@": 2307,
    "бат@@": 2308,
    "аркат@@": 2309,
    "аман@@": 2310,
    "ам": 2311,
    "Мар@@": 2312,
    "Лешӗ": 2313,
    "ӗмӗрех": 2314,
    "шкул": 2315,
    "хӳме": 2316,
    "хушӑра": 2317,
    "хули": 2318,
    "тма": 2319,
    "сывлӑш@@": 2320,
    "пӗлӗт": 2321,
    "паратӑп": 2322,
    "пайӗ": 2323,
    "маларах": 2324,
    "курӑнать": 2325,
    "йышлӑ": 2326,
    "вӗҫне": 2327,
    "ҫынни@@": 2328,
    "Ҫак@@": 2329,
    "юр": 2330,
    "шӗпе": 2331,
    "хула@@": 2332,
    "туни": 2333,
    "татах": 2334,
    "рассине": 2335,
    "мас@@": 2336,
    "макӑр@@": 2337,
    "куҫне": 2338,
    "иртрӗ": 2339,
    "ек@@": 2340,
    "выртакан": 2341,
    "Сире": 2342,
    "Пурте": 2343,
    "Мо@@": 2344,
    "Ан": 2345,
    "хускал@@": 2346,
    "тавӑрса": 2347,
    "суйлав": 2348,
    "нӗччӗ": 2349,
    "мухтавлӑ": 2350,
    "кунран": 2351,
    "канӑҫлӑх": 2352,
    "енчи": 2353,
    "ал": 2354,
    "2015": 2355,
    "чӗлхи": 2356,
    "чече@@": 2357,
    "хӗсӗр@@": 2358,
    "хай@@": 2359,
    "фор@@": 2360,
    "тор@@": 2361,
    "тапӑр@@": 2362,
    "статйин": 2363,
    "ратса": 2364,
    "пит@@": 2365,
    "ленине": 2366,
    "зо@@": 2367,
    "анӑн": 2368,
    "ҫӗн": 2369,
    "ҫирӗпле@@": 2370,
    "хуллен": 2371,
    "умӗн": 2372,
    "улшӑн@@": 2373,
    "сун@@": 2374,
    "пулмарӗ": 2375,
    "йывӑ@@": 2376,
    "ачисем": 2377,
    "ахаль": 2378,
    "аллинче": 2379,
    "Республика": 2380,
    "3@@": 2381,
    "ӑнланса": 2382,
    "ҫӳрет": 2383,
    "ҫӗршы@@": 2384,
    "ярӗ": 2385,
    "шер": 2386,
    "хе@@": 2387,
    "тисем": 2388,
    "типӗ": 2389,
    "тармалла": 2390,
    "пуху": 2391,
    "патӑм": 2392,
    "липе": 2393,
    "еткер@@": 2394,
    "5@@": 2395,
    "ӑшӑн": 2396,
    "ҫулне": 2397,
    "юнашар": 2398,
    "чунне": 2399,
    "хатӗрленӗ": 2400,
    "тасал@@": 2401,
    "сенех": 2402,
    "самантрах": 2403,
    "саккуна": 2404,
    "пыраҫҫӗ": 2405,
    "майпа": 2406,
    "ках": 2407,
    "йӑм@@": 2408,
    "Чӑн": 2409,
    "Иордан": 2410,
    "ҫӳлелле": 2411,
    "шкул@@": 2412,
    "хирӗҫ@@": 2413,
    "урӑх@@": 2414,
    "сирӗншӗн": 2415,
    "ры@@": 2416,
    "пӗлтерсе": 2417,
    "муниципалитет": 2418,
    "куҫӗсем": 2419,
    "каш@@": 2420,
    "йӗркене": 2421,
    "илӗ": 2422,
    "атте@@": 2423,
    "Хӗра@@": 2424,
    "ҫакӑнта": 2425,
    "шухӑ@@": 2426,
    "чӑк@@": 2427,
    "тумалла": 2428,
    "тенине": 2429,
    "тать": 2430,
    "сирӗнпе": 2431,
    "пӗччен": 2432,
    "пулччӑр": 2433,
    "мӗне": 2434,
    "латса": 2435,
    "кашнийӗ": 2436,
    "йӗркепе": 2437,
    "ичченех": 2438,
    "асӑр@@": 2439,
    "аре@@": 2440,
    "абзац@@": 2441,
    "Турӑран": 2442,
    "ҫӗм": 2443,
    "ҫара@@": 2444,
    "шутлан@@": 2445,
    "хӗре@@": 2446,
    "хаяр": 2447,
    "тӗтӗр@@": 2448,
    "тӗрӗсле@@": 2449,
    "ский": 2450,
    "пӗлтерет": 2451,
    "пулмасть": 2452,
    "нашкал": 2453,
    "маши@@": 2454,
    "кӑшӗ": 2455,
    "илтсессӗн": 2456,
    "вӑрман": 2457,
    "Ывӑ@@": 2458,
    "ҫӗне@@": 2459,
    "ҫҫи": 2460,
    "ҫисене": 2461,
    "чак@@": 2462,
    "тӑтӑр": 2463,
    "тӑратӑп": 2464,
    "маст@@": 2465,
    "лани": 2466,
    "кинче": 2467,
    "йӗркеле@@": 2468,
    "йӗри": 2469,
    "Авраам": 2470,
    "4@@": 2471,
    "ӑрта": 2472,
    "эппин": 2473,
    "шак": 2474,
    "хӑвал@@": 2475,
    "тыткӑна": 2476,
    "тултарнӑ": 2477,
    "пӗҫер@@": 2478,
    "пӗле@@": 2479,
    "пултарайман": 2480,
    "лер@@": 2481,
    "ларӗҫ": 2482,
    "ак": 2483,
    "ӗш@@": 2484,
    "ҫитичченех": 2485,
    "хан": 2486,
    "сай@@": 2487,
    "пек@@": 2488,
    "палат@@": 2489,
    "нин": 2490,
    "лю@@": 2491,
    "кӗмӗ@@": 2492,
    "культу@@": 2493,
    "жи@@": 2494,
    "Ше@@": 2495,
    "Ахи@@": 2496,
    "ӗпех": 2497,
    "шӗнче": 2498,
    "чуна": 2499,
    "тухӑҫ": 2500,
    "расшӑн": 2501,
    "мӑп": 2502,
    "калар@@": 2503,
    "вӑхӑт@@": 2504,
    "?..": 2505,
    "ӗҫчен@@": 2506,
    "ҫсе": 2507,
    "ҫинелле": 2508,
    "хушнине": 2509,
    "тил@@": 2510,
    "теекен": 2511,
    "тара": 2512,
    "сӑм@@": 2513,
    "паттӑр@@": 2514,
    "мах@@": 2515,
    "лин": 2516,
    "кайӑк@@": 2517,
    "инҫет@@": 2518,
    "граждан@@": 2519,
    "ӗнсе": 2520,
    "тытма": 2521,
    "тех": 2522,
    "сей@@": 2523,
    "пулӗччӗ": 2524,
    "пулассине": 2525,
    "лёт@@": 2526,
    "кӑн@@": 2527,
    "кӑва@@": 2528,
    "культура": 2529,
    "Ыт@@": 2530,
    "Пет@@": 2531,
    "Енакиев": 2532,
    "чӗлхе": 2533,
    "тӗк@@": 2534,
    "тӑс@@": 2535,
    "тапхӑр@@": 2536,
    "пушхир@@": 2537,
    "курӑннӑ": 2538,
    "ин": 2539,
    "вӗнче": 2540,
    "анге@@": 2541,
    "Не@@": 2542,
    "45": 2543,
    "Ҫӳлхуҫамӑм": 2544,
    "щи@@": 2545,
    "шанчӑклӑ": 2546,
    "хӑм": 2547,
    "хе": 2548,
    "тӗрӗс@@": 2549,
    "тран@@": 2550,
    "пӑлхан@@": 2551,
    "пусса": 2552,
    "пурӑнакан@@": 2553,
    "лан": 2554,
    "иккӗшӗ": 2555,
    "вӗлере@@": 2556,
    "вырӑнтан": 2557,
    "Хал@@": 2558,
    "Сывлӑш": 2559,
    "Пи@@": 2560,
    "Кашни": 2561,
    "Ионафан": 2562,
    "ӳпке@@": 2563,
    "ҫан@@": 2564,
    "хӗрринче": 2565,
    "хӗрарӑм@@": 2566,
    "хан@@": 2567,
    "уллӑ": 2568,
    "тӑваттӑмӗш": 2569,
    "тумтирне": 2570,
    "пай": 2571,
    "объек@@": 2572,
    "мӑшӑр": 2573,
    "калӑр": 2574,
    "докумен@@": 2575,
    "вырӑнаҫ@@": 2576,
    "б": 2577,
    "ана@@": 2578,
    "Ави@@": 2579,
    "46": 2580,
    "ҫӑлса": 2581,
    "Ҫӗнӗ": 2582,
    "шӗсене": 2583,
    "шул@@": 2584,
    "чӗсен": 2585,
    "чӑр": 2586,
    "чухнех": 2587,
    "чул@@": 2588,
    "цен@@": 2589,
    "хитре": 2590,
    "тӗллевпе": 2591,
    "тупса": 2592,
    "тупнӑ": 2593,
    "ник@@": 2594,
    "Ди@@": 2595,
    "В": 2596,
    "44": 2597,
    "200@@": 2598,
    "00": 2599,
    "ҫурчӗ": 2600,
    "Ҫавӑн@@": 2601,
    "хӑтар@@": 2602,
    "хыпар@@": 2603,
    "хывнӑ": 2604,
    "хир": 2605,
    "тӑрӑшса": 2606,
    "сил@@": 2607,
    "асӑннӑ": 2608,
    "Ас@@": 2609,
    "ҫӑмӑл": 2610,
    "ҫырма": 2611,
    "ҫапӑҫ@@": 2612,
    "Ҫурт": 2613,
    "чӳк": 2614,
    "це@@": 2615,
    "хӑтӑл@@": 2616,
    "сассине": 2617,
    "пулӑр": 2618,
    "нӑран": 2619,
    "лӑхра": 2620,
    "лентер@@": 2621,
    "кӑмӑлне": 2622,
    "илтӗн@@": 2623,
    "вӑтам": 2624,
    "вӑйне": 2625,
    "Кун": 2626,
    "Биденко": 2627,
    "Ҫӳлхуҫанӑн": 2628,
    "юлташ@@": 2629,
    "чӳрече": 2630,
    "хӑн": 2631,
    "тӗнчене": 2632,
    "турӑ": 2633,
    "кӳрсе": 2634,
    "ӗҫленӗ": 2635,
    "ӑлнӑ": 2636,
    "япаласем": 2637,
    "юрӑ": 2638,
    "юрамасть": 2639,
    "чӗк": 2640,
    "унти": 2641,
    "тӑрччӗ": 2642,
    "сон": 2643,
    "латӑр": 2644,
    "канаш@@": 2645,
    "всем": 2646,
    "Пӗл@@": 2647,
    "ҫыхса": 2648,
    "ҫулӗпе": 2649,
    "ҫулпа": 2650,
    "шӗсем": 2651,
    "хуҫи": 2652,
    "хун@@": 2653,
    "сран": 2654,
    "сар": 2655,
    "пӳлӗм@@": 2656,
    "пӗлме": 2657,
    "пӑра@@": 2658,
    "пулчӗҫ": 2659,
    "организаци@@": 2660,
    "лӗр": 2661,
    "летнӗ": 2662,
    "кка": 2663,
    "вуникӗ": 2664,
    "Этем": 2665,
    "Республикинче": 2666,
    "Пурне": 2667,
    "Павел": 2668,
    "Михаил": 2669,
    "Мат@@": 2670,
    "ҫӗнчен": 2671,
    "ҫаксем": 2672,
    "ывӑлӗ@@": 2673,
    "фараон": 2674,
    "семсӗр": 2675,
    "пӗрлех": 2676,
    "пла@@": 2677,
    "лӗхӗ": 2678,
    "иудейсем": 2679,
    "евӗр@@": 2680,
    "Ал@@": 2681,
    "ӗсенче": 2682,
    "ҫӑкӑр@@": 2683,
    "ытлашши": 2684,
    "чӗререн": 2685,
    "хинчен": 2686,
    "хальхи": 2687,
    "тӑрай@@": 2688,
    "тарӑх@@": 2689,
    "священниксем": 2690,
    "параҫҫӗ": 2691,
    "нччӗ": 2692,
    "мухтаса": 2693,
    "лешӗсем": 2694,
    "кайсан": 2695,
    "вӗлерме": 2696,
    "вӑрӑм": 2697,
    "Кирила": 2698,
    "Ит@@": 2699,
    "тӗслӗ": 2700,
    "тумтир": 2701,
    "рей@@": 2702,
    "регион@@": 2703,
    "пас@@": 2704,
    "мӗр": 2705,
    "мӑшӑр@@": 2706,
    "лерех": 2707,
    "кӑнтӑр": 2708,
    "курсан": 2709,
    "кашни@@": 2710,
    "вӗсемшӗн": 2711,
    "асси@@": 2712,
    "Халӑх": 2713,
    "Израиль@@": 2714,
    "ҫавах": 2715,
    "щ@@": 2716,
    "фер@@": 2717,
    "теме": 2718,
    "сӗм": 2719,
    "сахал@@": 2720,
    "право": 2721,
    "парнесем": 2722,
    "лам": 2723,
    "кайсассӑн": 2724,
    "ер": 2725,
    "енӗ": 2726,
    "Таса": 2727,
    "2017": 2728,
    "ҫывӑхӗ@@": 2729,
    "ҫурӑ@@": 2730,
    "Ҫӳлху@@": 2731,
    "ярӑп": 2732,
    "юрать": 2733,
    "шӑпа": 2734,
    "чӳре@@": 2735,
    "уй": 2736,
    "тараҫҫӗ": 2737,
    "пӳ@@": 2738,
    "пӗтсе": 2739,
    "пуҫҫап@@": 2740,
    "пер": 2741,
    "паянхи": 2742,
    "калас": 2743,
    "инке@@": 2744,
    "аласа": 2745,
    "Фа@@": 2746,
    "ҫӑлӑн@@": 2747,
    "ява@@": 2748,
    "ывӑлӗсенчен": 2749,
    "туйӑнать": 2750,
    "тирпей@@": 2751,
    "тапӑн@@": 2752,
    "сӑмахӗ": 2753,
    "сывлӑ@@": 2754,
    "самантра": 2755,
    "пӳлӗме": 2756,
    "пуш@@": 2757,
    "панине": 2758,
    "мӗш@@": 2759,
    "кӑсӑ@@": 2760,
    "качака": 2761,
    "ирттернӗ": 2762,
    "ило@@": 2763,
    "бюджет": 2764,
    "асӑрха@@": 2765,
    "Сӑ@@": 2766,
    "Ефрем": 2767,
    "чӑвашла": 2768,
    "хапхи": 2769,
    "халӑхсене": 2770,
    "тӳрре": 2771,
    "тӑратнӑ": 2772,
    "тӑваҫҫӗ": 2773,
    "тсен": 2774,
    "тип@@": 2775,
    "сӑрт": 2776,
    "санран": 2777,
    "пултараҫҫӗ": 2778,
    "коми@@": 2779,
    "илчӗҫ": 2780,
    "Давида": 2781,
    "Бе@@": 2782,
    "Ат@@": 2783,
    "ӑшӑ": 2784,
    "шухӑша": 2785,
    "чӗсемпе": 2786,
    "хавхалан@@": 2787,
    "текех": 2788,
    "сывлӑш": 2789,
    "стра@@": 2790,
    "скере": 2791,
    "раканӗ": 2792,
    "лӑхӗн": 2793,
    "лахи": 2794,
    "калан@@": 2795,
    "йӗсен": 2796,
    "айӑпсӑр": 2797,
    "Е": 2798,
    "ӳллӗ": 2799,
    "ӑччӗ": 2800,
    "ӑва": 2801,
    "ҫинӗ": 2802,
    "ҫавӑн@@": 2803,
    "ятӑм": 2804,
    "хӗрарӑ@@": 2805,
    "тимӗр": 2806,
    "прави@@": 2807,
    "кӗртес": 2808,
    "кӑсем": 2809,
    "каҫхине": 2810,
    "кайӗ": 2811,
    "каймалла": 2812,
    "гу@@": 2813,
    "ама": 2814,
    "Чӑнах": 2815,
    "Тӑван": 2816,
    "Кайран": 2817,
    "2016": 2818,
    "ҫук@@": 2819,
    "ыттисем": 2820,
    "ывӑл@@": 2821,
    "шухӑшланӑ": 2822,
    "фон@@": 2823,
    "утӑ": 2824,
    "тӳпе": 2825,
    "рса": 2826,
    "пытарнӑ": 2827,
    "мӗнче": 2828,
    "лап@@": 2829,
    "каякан": 2830,
    "калани": 2831,
    "исене": 2832,
    "вун": 2833,
    "аяккалла": 2834,
    "администра@@": 2835,
    ".@@": 2836,
    "ӑкне": 2837,
    "ҫиччӗмӗш": 2838,
    "юрӑхлӑ": 2839,
    "юлашкинчен": 2840,
    "шӑнса": 2841,
    "тӑвӑ@@": 2842,
    "тарӑн": 2843,
    "пыр@@": 2844,
    "пулӑшма": 2845,
    "пара@@": 2846,
    "логи": 2847,
    "кӗр": 2848,
    "вӗнчен": 2849,
    "Юлашкинчен": 2850,
    "2014": 2851,
    "ҫитсен": 2852,
    "ҫапӑҫу": 2853,
    "шар@@": 2854,
    "чӗрине": 2855,
    "хӳт@@": 2856,
    "тӗреклӗ@@": 2857,
    "тӑватӑп": 2858,
    "район": 2859,
    "нӑҫ@@": 2860,
    "кӗнеке@@": 2861,
    "коман@@": 2862,
    "йышӗ": 2863,
    "йышши": 2864,
    "вуласа": 2865,
    "Самар@@": 2866,
    "ӳкӗт@@": 2867,
    "ҫӗмӗрсе": 2868,
    "ҫути": 2869,
    "халь@@": 2870,
    "тӗлӗнсе": 2871,
    "сӗрех": 2872,
    "пытан@@": 2873,
    "нӑй@@": 2874,
    "мӑшӗ": 2875,
    "ларах": 2876,
    "канӗ": 2877,
    "выҫ@@": 2878,
    "ая@@": 2879,
    "Вы@@": 2880,
    "Вениамин": 2881,
    "Ам@@": 2882,
    "ӳсем": 2883,
    "ӳкӗн@@": 2884,
    "ҫултан": 2885,
    "шутне": 2886,
    "чиксе": 2887,
    "хурав@@": 2888,
    "хатӗрлен@@": 2889,
    "хамӑрӑн": 2890,
    "тӗттӗм": 2891,
    "тӗпче@@": 2892,
    "тӑтӑм": 2893,
    "сыпӑ@@": 2894,
    "ратчӗ": 2895,
    "пурӑнӑҫ": 2896,
    "нтер@@": 2897,
    "лӗк@@": 2898,
    "ков@@": 2899,
    "ери@@": 2900,
    "астуса": 2901,
    "Шупашкар": 2902,
    "Пе@@": 2903,
    "2018": 2904,
    "2013": 2905,
    "Ӳ@@": 2906,
    "ӑҫтан": 2907,
    "ҫӳрекен@@": 2908,
    "Ҫу@@": 2909,
    "юлчӗ": 2910,
    "хӑрса": 2911,
    "хура@@": 2912,
    "ури@@": 2913,
    "тетӗр": 2914,
    "таврашӗнчи": 2915,
    "сав@@": 2916,
    "пӗлетӗн": 2917,
    "кӑмӑла": 2918,
    "куракан": 2919,
    "иккӗлен@@": 2920,
    "Христо@@": 2921,
    "ӗҫӗсем": 2922,
    "Ӗҫ@@": 2923,
    "ҫӳрер@@": 2924,
    "ҫывӑр@@": 2925,
    "ҫитет": 2926,
    "чӗлх@@": 2927,
    "тупӑн@@": 2928,
    "так": 2929,
    "сурӑх@@": 2930,
    "суран@@": 2931,
    "ска@@": 2932,
    "сикль": 2933,
    "пӳрт@@": 2934,
    "пен": 2935,
    "кайрӑм": 2936,
    "ирӗке": 2937,
    "ирсӗр": 2938,
    "есси@@": 2939,
    "асшӑн": 2940,
    "Иерусали@@": 2941,
    "Гал@@": 2942,
    "Атте": 2943,
    "ӗлкӗр@@": 2944,
    "ӑкӗ": 2945,
    "ҫӑпа": 2946,
    "ҫылӑхлӑ": 2947,
    "ҫара": 2948,
    "Ҫурчӗ": 2949,
    "ья@@": 2950,
    "шӑп": 2951,
    "сӑх@@": 2952,
    "салат@@": 2953,
    "рӑп": 2954,
    "лӑпкӑ": 2955,
    "курӑк": 2956,
    "йӗркелесе": 2957,
    "иль": 2958,
    "Ев@@": 2959,
    "ӗм@@": 2960,
    "Ӑҫта": 2961,
    "ҫӗрӗнчи": 2962,
    "ҫумӗнче": 2963,
    "ҫимӗ@@": 2964,
    "чӗннӗ": 2965,
    "хӗҫпе": 2966,
    "хыр@@": 2967,
    "хута": 2968,
    "хастар@@": 2969,
    "три@@": 2970,
    "пӳрт": 2971,
    "пӗртен": 2972,
    "пухӑн@@": 2973,
    "нпа": 2974,
    "намӑс": 2975,
    "марччӗ": 2976,
    "кунтан": 2977,
    "килмест": 2978,
    "вӑхӑта": 2979,
    "Сион": 2980,
    "Гер@@": 2981,
    "Ача": 2982,
    "ӳссе": 2983,
    "ҫӗршыв@@": 2984,
    "ҫитернӗ": 2985,
    "шучӗ": 2986,
    "чӑваш@@": 2987,
    "умӗнчи": 2988,
    "ултав@@": 2989,
    "тура": 2990,
    "така": 2991,
    "ринчен": 2992,
    "пӗлӳ": 2993,
    "пӑру": 2994,
    "пысӑ@@": 2995,
    "пурӑнакансене": 2996,
    "мӗсене": 2997,
    "лӗсене": 2998,
    "лӑп": 2999,
    "ила": 3000,
    "енине": 3001,
    "вӗрентнӗ": 3002,
    "выртать": 3003,
    "Иуд@@": 3004,
    "Де@@": 3005,
    "ӗҫре": 3006,
    "юлта@@": 3007,
    "шухӑшла@@": 3008,
    "шур@@": 3009,
    "чунтан": 3010,
    "унччен": 3011,
    "сывӑ": 3012,
    "сту@@": 3013,
    "пуҫтарса": 3014,
    "парӑн@@": 3015,
    "нипех": 3016,
    "кӗртесси": 3017,
    "куҫса": 3018,
    "карса": 3019,
    "итлӗр": 3020,
    "дан@@": 3021,
    "га": 3022,
    "вӗреннӗ": 3023,
    "асра": 3024,
    "аркатса": 3025,
    "Ик@@": 3026,
    "ӑрсем": 3027,
    "хӑт@@": 3028,
    "хисем": 3029,
    "упа": 3030,
    "умӑнта": 3031,
    "турӑм": 3032,
    "сӑмахӗ@@": 3033,
    "сӑлтав@@": 3034,
    "стви@@": 3035,
    "сасӑпа": 3036,
    "пӑн@@": 3037,
    "пайӗн": 3038,
    "лав": 3039,
    "ирхине": 3040,
    "вен@@": 3041,
    "аташ@@": 3042,
    "аллисене": 3043,
    "Туррӑм": 3044,
    "Ин@@": 3045,
    "Джо": 3046,
    "ӳс@@": 3047,
    "ӳр@@": 3048,
    "ӗнчех": 3049,
    "ҫӗршыв": 3050,
    "ҫунса": 3051,
    "шутланӑ": 3052,
    "шка": 3053,
    "хӑв": 3054,
    "пӑрӑнса": 3055,
    "процен@@": 3056,
    "пиччӗ@@": 3057,
    "паха": 3058,
    "патна": 3059,
    "пани": 3060,
    "йӗрсе": 3061,
    "йӑваш@@": 3062,
    "исем": 3063,
    "етпӗр": 3064,
    "енсе": 3065,
    "вуннӑмӗш": 3066,
    "Саккун@@": 3067,
    "Ир@@": 3068,
    "Ен@@": 3069,
    "ӳсене": 3070,
    "ӗре": 3071,
    "ӗмӗрлӗх": 3072,
    "ҫирӗплетнӗ": 3073,
    "Ҫул@@": 3074,
    "эхер": 3075,
    "экономика": 3076,
    "чап@@": 3077,
    "тӑл@@": 3078,
    "тӑка@@": 3079,
    "сӑнӗ": 3080,
    "сӑм": 3081,
    "сум@@": 3082,
    "прав@@": 3083,
    "полномочи@@": 3084,
    "пала": 3085,
    "мастӑр": 3086,
    "лӗпе": 3087,
    "кӑм@@": 3088,
    "инче": 3089,
    "вӑрттӑн@@": 3090,
    "ачисене": 3091,
    "аллуна": 3092,
    "айӑ@@": 3093,
    "Эп": 3094,
    "Николай": 3095,
    "Вань@@": 3096,
    "Ара": 3097,
    "юрӑ@@": 3098,
    "ытти@@": 3099,
    "ыйтӑ@@": 3100,
    "шывпа": 3101,
    "шине": 3102,
    "чарса": 3103,
    "тӑртат@@": 3104,
    "тухӗ": 3105,
    "старик": 3106,
    "ратӑр": 3107,
    "пӗлмест@@": 3108,
    "пичет@@": 3109,
    "об@@": 3110,
    "нӑна": 3111,
    "нер": 3112,
    "минут": 3113,
    "мастпӑр": 3114,
    "лей@@": 3115,
    "лартма": 3116,
    "кӗмӗш": 3117,
    "куҫар@@": 3118,
    "кирлине": 3119,
    "карт@@": 3120,
    "вӗренсе": 3121,
    "арти@@": 3122,
    "Ывӑлӗ": 3123,
    "Сар@@": 3124,
    "ҫынсемпе": 3125,
    "юратса": 3126,
    "чӗр": 3127,
    "чӗл@@": 3128,
    "чунӗ": 3129,
    "чунӑм": 3130,
    "хыв@@": 3131,
    "хупӑрласа": 3132,
    "улӑх@@": 3133,
    "тӗлӗнче": 3134,
    "рӑнса": 3135,
    "нумайӑшӗ": 3136,
    "никӗ@@": 3137,
    "лару": 3138,
    "ларма": 3139,
    "ламалли": 3140,
    "кӳре@@": 3141,
    "курчӗ": 3142,
    "инчен": 3143,
    "Н": 3144,
    "48": 3145,
    "яланхи": 3146,
    "шутсӑр": 3147,
    "чӗрӗлсе": 3148,
    "хӑйпе": 3149,
    "халӑхӗн": 3150,
    "услови@@": 3151,
    "тарай@@": 3152,
    "сӑрах": 3153,
    "республикӑра": 3154,
    "пин@@": 3155,
    "она": 3156,
    "леш@@": 3157,
    "кӳн@@": 3158,
    "илӗр": 3159,
    "атель@@": 3160,
    "Унпа": 3161,
    "Моав": 3162,
    "Кур@@": 3163,
    "ӗсенчен": 3164,
    "ӑслӑлӑх": 3165,
    "ҫум": 3166,
    "Ҫуртӗнче": 3167,
    "япал@@": 3168,
    "чухнехи": 3169,
    "хӗрарӑмсем": 3170,
    "хуҫамӑм": 3171,
    "фрон@@": 3172,
    "фан": 3173,
    "тӳпе@@": 3174,
    "тумтир@@": 3175,
    "туйӑннӑ": 3176,
    "рӑр": 3177,
    "род@@": 3178,
    "пытанса": 3179,
    "пуҫларӗҫ": 3180,
    "пултӑм": 3181,
    "палӑрт@@": 3182,
    "ева": 3183,
    "вӗлерсе": 3184,
    "Мӗ@@": 3185,
    "Мария": 3186,
    "Александр": 3187,
    "ӳтне": 3188,
    "ӳне": 3189,
    "ҫулсенче": 3190,
    "ҫуккине": 3191,
    "Ҫурчӗн": 3192,
    "хуҫ@@": 3193,
    "укҫи": 3194,
    "сурӑх": 3195,
    "спорт@@": 3196,
    "сивӗ": 3197,
    "салтак@@": 3198,
    "пӗлместӗп": 3199,
    "паш@@": 3200,
    "мон": 3201,
    "малӑх": 3202,
    "дар@@": 3203,
    "вӑр": 3204,
    "асса": 3205,
    "Бекки": 3206,
    "ӳт@@": 3207,
    "Ҫавна": 3208,
    "туя@@": 3209,
    "тени": 3210,
    "сӑмахпа": 3211,
    "савӑнӑҫ": 3212,
    "мри": 3213,
    "мон@@": 3214,
    "кран": 3215,
    "килӗ@@": 3216,
    "кермен@@": 3217,
    "йӑна": 3218,
    "вод@@": 3219,
    "амӑшне": 3220,
    "айӑпла@@": 3221,
    "Чи": 3222,
    "Кун@@": 3223,
    "ӗҫсе": 3224,
    "эк@@": 3225,
    "чине": 3226,
    "усем": 3227,
    "умӗнчен": 3228,
    "терӗҫ": 3229,
    "тель": 3230,
    "сӑнаса": 3231,
    "рек": 3232,
    "лӗрех": 3233,
    "апат@@": 3234,
    "Хӗр@@": 3235,
    "Пире": 3236,
    "Муска@@": 3237,
    "6@@": 3238,
    "ҫӳлти": 3239,
    "шӑтӑк@@": 3240,
    "хӑват": 3241,
    "тӗре@@": 3242,
    "тупӑ@@": 3243,
    "салтак": 3244,
    "рал": 3245,
    "пуҫтарӑн@@": 3246,
    "пухса": 3247,
    "полити@@": 3248,
    "нисен": 3249,
    "кӑш": 3250,
    "куҫа": 3251,
    "ич": 3252,
    "гор@@": 3253,
    "вӑрҫа": 3254,
    "Хӗрлӗ": 3255,
    "Халь@@": 3256,
    "Туррӑр": 3257,
    "Икӗ": 3258,
    "ывӑлӑм": 3259,
    "шкер@@": 3260,
    "тӑтӑш": 3261,
    "турат@@": 3262,
    "туйса": 3263,
    "пулаҫҫӗ": 3264,
    "мӑшкӑл@@": 3265,
    "марӑн": 3266,
    "липех": 3267,
    "кӳрентер@@": 3268,
    "килме": 3269,
    "вак": 3270,
    "ба": 3271,
    "Ах": 3272,
    "ҫывӑхар@@": 3273,
    "цие": 3274,
    "хупласа": 3275,
    "хатӗрле@@": 3276,
    "тӑрӑшнӑ": 3277,
    "сулаха@@": 3278,
    "стви": 3279,
    "сехет@@": 3280,
    "пӗтерме": 3281,
    "нк@@": 3282,
    "ниц@@": 3283,
    "каз@@": 3284,
    "вия": 3285,
    "аттемӗр@@": 3286,
    "Эппин": 3287,
    "Патшалӑх@@": 3288,
    "ҫут@@": 3289,
    "ҫех": 3290,
    "ярать": 3291,
    "янӑ@@": 3292,
    "эл@@": 3293,
    "шут": 3294,
    "халӑхсен": 3295,
    "хал": 3296,
    "тӳперен": 3297,
    "тӗлле@@": 3298,
    "тӑман": 3299,
    "тун@@": 3300,
    "саншӑн": 3301,
    "районӗнчи": 3302,
    "пурӗ": 3303,
    "мене": 3304,
    "каяҫҫӗ": 3305,
    "йӑлӑн@@": 3306,
    "йышне": 3307,
    "аскӑн": 3308,
    "Халь": 3309,
    "Сак@@": 3310,
    "Епле": 3311,
    "47": 3312,
    "ӳснӗ": 3313,
    "ҫутӑл@@": 3314,
    "ҫитей@@": 3315,
    "шӑтӑ@@": 3316,
    "хӗра@@": 3317,
    "хутӑш@@": 3318,
    "халӑхӑ@@": 3319,
    "тӑршшӗ": 3320,
    "тытрӗ": 3321,
    "стен@@": 3322,
    "сакӑр": 3323,
    "пурӑнаҫҫӗ": 3324,
    "пред@@": 3325,
    "мӑшкӑл": 3326,
    "муниципали@@": 3327,
    "куҫӗсене": 3328,
    "куҫӗ@@": 3329,
    "келесе": 3330,
    "йӗнче": 3331,
    "ене@@": 3332,
    "вӑран@@": 3333,
    "аро@@": 3334,
    "Эх": 3335,
    ".]": 3336,
    "ӑрсене": 3337,
    "ҫумӗнчи": 3338,
    "чӗре": 3339,
    "хӗрринчи": 3340,
    "хыҫӗнчен": 3341,
    "фир@@": 3342,
    "тӑхӑнтар@@": 3343,
    "тивлечӗ": 3344,
    "семех": 3345,
    "ранах": 3346,
    "полномо@@": 3347,
    "питӗр@@": 3348,
    "нимӗҫ": 3349,
    "кӳмелли": 3350,
    "кӗтмен": 3351,
    "кӑма@@": 3352,
    "ж": 3353,
    "ашшӗне": 3354,
    "ачи": 3355,
    "ата": 3356,
    "ало@@": 3357,
    "Кабине@@": 3358,
    "И": 3359,
    "Ассири": 3360,
    "ҫӑсен": 3361,
    "ҫурҫӗр": 3362,
    "яла": 3363,
    "яв@@": 3364,
    "шат@@": 3365,
    "хускат@@": 3366,
    "тӳлесе": 3367,
    "слӑ": 3368,
    "пӗлтерчӗ": 3369,
    "пӑх": 3370,
    "пурнӑҫа": 3371,
    "манса": 3372,
    "лехи": 3373,
    "кӗнеке": 3374,
    "килте": 3375,
    "Сири": 3376,
    "Ро@@": 3377,
    "Пы@@": 3378,
    "Пур": 3379,
    "ӑнӑҫ@@": 3380,
    "ҫемье@@": 3381,
    "юхса": 3382,
    "цин": 3383,
    "хывса": 3384,
    "хупса": 3385,
    "хире": 3386,
    "уйрӑ@@": 3387,
    "тӑш@@": 3388,
    "тӑракансем": 3389,
    "тухрӗҫ": 3390,
    "тлӑ": 3391,
    "саккунӗсемпе": 3392,
    "пуххи": 3393,
    "пурин": 3394,
    "нат@@": 3395,
    "мухтав": 3396,
    "ласси": 3397,
    "курас": 3398,
    "вырӑнсене": 3399,
    "амӑшӗн": 3400,
    "Шӑ@@": 3401,
    "Тӗрӗ@@": 3402,
    "Симон": 3403,
    "Министрсен": 3404,
    "Вар@@": 3405,
    "Ача@@": 3406,
    "ҫитмӗл": 3407,
    "ҫемье": 3408,
    "ыл@@": 3409,
    "шуйттан": 3410,
    "чӗтре@@": 3411,
    "цийӗн": 3412,
    "уяв": 3413,
    "уйӑхӑн": 3414,
    "уйрӑм@@": 3415,
    "тӗнчере": 3416,
    "тӑна": 3417,
    "тӑванӗсем": 3418,
    "тарӗ": 3419,
    "кӗтес@@": 3420,
    "кӑкӑр@@": 3421,
    "йӳ@@": 3422,
    "зе@@": 3423,
    "екенсем": 3424,
    "бе@@": 3425,
    "Кан@@": 3426,
    "ҫӗмӗр@@": 3427,
    "ҫывӑрса": 3428,
    "юрӑхсӑр": 3429,
    "шутра": 3430,
    "чатӑрне": 3431,
    "уяса": 3432,
    "тӗреклӗ": 3433,
    "тӑванӑмсем": 3434,
    "тух": 3435,
    "сыват@@": 3436,
    "страте@@": 3437,
    "сарса": 3438,
    "ракансене": 3439,
    "пӑрахрӗ": 3440,
    "пуҫтарӑннӑ": 3441,
    "пурнӑҫпа": 3442,
    "предприяти@@": 3443,
    "памалли": 3444,
    "клас@@": 3445,
    "килӗнче": 3446,
    "кайнине": 3447,
    "вӑкӑр@@": 3448,
    "вырнаҫнӑ": 3449,
    "вой": 3450,
    "арӗ": 3451,
    "алл@@": 3452,
    "Унран": 3453,
    "ҫӳреҫҫӗ": 3454,
    "ҫӳр@@": 3455,
    "ҫунат@@": 3456,
    "чӗрӗ@@": 3457,
    "хӑрт@@": 3458,
    "хӑвӑртрах": 3459,
    "тупӑк@@": 3460,
    "тивет": 3461,
    "син@@": 3462,
    "путе@@": 3463,
    "пачӗҫ": 3464,
    "ов": 3465,
    "нумайччен": 3466,
    "лӑхах": 3467,
    "кӑларма": 3468,
    "илсен": 3469,
    "асӑрхан@@": 3470,
    "Тар@@": 3471,
    "Ис@@": 3472,
    "Езекия": 3473,
    "ӑнӑҫлӑ": 3474,
    "ҫынран": 3475,
    "юлташ": 3476,
    "шкулта": 3477,
    "хыҫ@@": 3478,
    "усра@@": 3479,
    "тӗрӗслесе": 3480,
    "тӗнчи": 3481,
    "тур": 3482,
    "территори@@": 3483,
    "референду@@": 3484,
    "пыр": 3485,
    "пурнӑҫлама": 3486,
    "питне": 3487,
    "пирӗнпе": 3488,
    "паман": 3489,
    "паллӑ@@": 3490,
    "мерӗм": 3491,
    "меннине": 3492,
    "маршру@@": 3493,
    "кӗтӗ@@": 3494,
    "кӑмӑлпа": 3495,
    "кунах": 3496,
    "ишӗ@@": 3497,
    "итле": 3498,
    "Эхер": 3499,
    "Хӑвна": 3500,
    "Фили@@": 3501,
    "ӑру@@": 3502,
    "ҫуртран": 3503,
    "ҫурта": 3504,
    "ҫуратса": 3505,
    "э": 3506,
    "ыран": 3507,
    "хӑш@@": 3508,
    "хума": 3509,
    "хаяррӑн": 3510,
    "уяв@@": 3511,
    "тӳссе": 3512,
    "тумалли": 3513,
    "территорийӗнче": 3514,
    "танах": 3515,
    "сӑмахӗсене": 3516,
    "сас@@": 3517,
    "савӑнӑҫлӑ": 3518,
    "пуласси": 3519,
    "мест@@": 3520,
    "ев@@": 3521,
    "анчӗ": 3522,
    "Сыв@@": 3523,
    "Саккунӗсен": 3524,
    "Йӗр@@": 3525,
    "ӗҫме": 3526,
    "ӑру": 3527,
    "ҫынсенчен": 3528,
    "ҫынпа": 3529,
    "ҫиллен@@": 3530,
    "ыш@@": 3531,
    "чылай@@": 3532,
    "хӗл@@": 3533,
    "хушрӗ": 3534,
    "хатӗрлесе": 3535,
    "тӗлӗнтер@@": 3536,
    "тухакан": 3537,
    "тепри@@": 3538,
    "статьяра": 3539,
    "спа": 3540,
    "сас": 3541,
    "саккунӗпе": 3542,
    "пынине": 3543,
    "пани@@": 3544,
    "лӑш@@": 3545,
    "килӗр": 3546,
    "каҫса": 3547,
    "йӑхӗ": 3548,
    "йӑх": 3549,
    "ере": 3550,
    "ашне": 3551,
    "ачасен": 3552,
    "Ял": 3553,
    "Енре": 3554,
    "Давид@@": 3555,
    "ӗмӗт@@": 3556,
    "ҫирӗп@@": 3557,
    "хушши@@": 3558,
    "хинче": 3559,
    "упӑшки": 3560,
    "тӗслӗх@@": 3561,
    "тытӑнса": 3562,
    "тепре": 3563,
    "таҫта": 3564,
    "расси": 3565,
    "развед@@": 3566,
    "пӗтӗ@@": 3567,
    "пӗлетӗр": 3568,
    "пытарса": 3569,
    "округ@@": 3570,
    "мӑнак@@": 3571,
    "мӑкӑр@@": 3572,
    "левитсем": 3573,
    "кра@@": 3574,
    "йӗркине": 3575,
    "етӗн": 3576,
    "вӑхӑчӗ": 3577,
    "ави@@": 3578,
    "Сӑва@@": 3579,
    "Самуил": 3580,
    "Иоанн": 3581,
    "Ж@@": 3582,
    "Веф@@": 3583,
    "I": 3584,
    "ӳкрӗ": 3585,
    "ҫырли": 3586,
    "ҫарӗ": 3587,
    "ҫавӑншӑн": 3588,
    "чав@@": 3589,
    "урисем": 3590,
    "тухсассӑн": 3591,
    "тисене": 3592,
    "терет": 3593,
    "стер@@": 3594,
    "ссӑн": 3595,
    "пулӑшӑ@@": 3596,
    "пултаракан": 3597,
    "пирӗншӗн": 3598,
    "пикен@@": 3599,
    "нӗскер": 3600,
    "месӗрех": 3601,
    "кӳрен@@": 3602,
    "йӑхне": 3603,
    "вӗҫен": 3604,
    "вах": 3605,
    "вал": 3606,
    "Манран": 3607,
    "Дубровский": 3608,
    "Да@@": 3609,
    "60": 3610,
    "49": 3611,
    "ӳпе": 3612,
    "ӗмӗтлен@@": 3613,
    "ӑнта": 3614,
    "ҫылӑ@@": 3615,
    "япалана": 3616,
    "япала@@": 3617,
    "чуру": 3618,
    "чапа": 3619,
    "хваттер@@": 3620,
    "уҫҫ@@": 3621,
    "уйрӑмах": 3622,
    "тӗттӗм@@": 3623,
    "туйӑн@@": 3624,
    "пулнӑран": 3625,
    "пулнипе": 3626,
    "мӗскӗн": 3627,
    "лӗнче": 3628,
    "ланчӗ": 3629,
    "кре": 3630,
    "йӗнчен": 3631,
    "виҫе@@": 3632,
    "вилӗмрен": 3633,
    "асту@@": 3634,
    "арӑмне": 3635,
    "айӑплӑ": 3636,
    "Федераци": 3637,
    "Туррӑм@@": 3638,
    "Кала@@": 3639,
    "52": 3640,
    "ӑслан@@": 3641,
    "ҫырӑ@@": 3642,
    "тӗплӗн": 3643,
    "тӑхӑнса": 3644,
    "тӑни": 3645,
    "три": 3646,
    "теат@@": 3647,
    "сӑв@@": 3648,
    "смо@@": 3649,
    "савӑнӑҫ@@": 3650,
    "рӗмӗр": 3651,
    "расса": 3652,
    "начар": 3653,
    "намӑса": 3654,
    "мӑйра@@": 3655,
    "мы@@": 3656,
    "кор@@": 3657,
    "кес@@": 3658,
    "кастар@@": 3659,
    "ирттерме": 3660,
    "должно@@": 3661,
    "дей@@": 3662,
    "абзацра": 3663,
    "Турру@@": 3664,
    "Вер@@": 3665,
    "55": 3666,
    "ҫухатнӑ": 3667,
    "ҫултал@@": 3668,
    "ҫийӗн": 3669,
    "шуса": 3670,
    "хапӑл": 3671,
    "халӑхӑм": 3672,
    "тӑратса": 3673,
    "тытӑмлӑх": 3674,
    "тусан": 3675,
    "суйлав@@": 3676,
    "сти": 3677,
    "служ@@": 3678,
    "пӑхать": 3679,
    "пӑрахас": 3680,
    "пуян": 3681,
    "плӗ": 3682,
    "кусем": 3683,
    "капла": 3684,
    "канаш": 3685,
    "ирех": 3686,
    "ания": 3687,
    "акансем": 3688,
    "Эс": 3689,
    "ӑмпа": 3690,
    "ҫӗлен": 3691,
    "ҫыншӑн": 3692,
    "ҫапӑҫма": 3693,
    "ҫакса": 3694,
    "яш": 3695,
    "эрех@@": 3696,
    "чирлӗ": 3697,
    "уйрӑл@@": 3698,
    "тӗнчери": 3699,
    "тутлӑ": 3700,
    "тепри": 3701,
    "тарчӗҫ": 3702,
    "сте@@": 3703,
    "спи@@": 3704,
    "раштав": 3705,
    "пуласса": 3706,
    "мин@@": 3707,
    "лартрӗ": 3708,
    "кӑтартма": 3709,
    "кулян@@": 3710,
    "илӳ": 3711,
    "виҫҫӗ@@": 3712,
    "бри@@": 3713,
    "асем": 3714,
    "арӑслан": 3715,
    "ав": 3716,
    "Хы@@": 3717,
    "Мускав@@": 3718,
    "51": 3719,
    "20@@": 3720,
    "ҫӑлтӑр@@": 3721,
    "ҫитмен": 3722,
    "юлӗ": 3723,
    "эр@@": 3724,
    "чӑмӑр@@": 3725,
    "хутшӑннӑ": 3726,
    "филистим@@": 3727,
    "урай@@": 3728,
    "тӑванӑм": 3729,
    "тулаш@@": 3730,
    "сур@@": 3731,
    "ствин": 3732,
    "пычӗҫ": 3733,
    "пухнӑ": 3734,
    "пулӑшса": 3735,
    "пултараймасть": 3736,
    "пайра": 3737,
    "но": 3738,
    "мухта@@": 3739,
    "министер@@": 3740,
    "мерӗҫ": 3741,
    "ланать": 3742,
    "кӳмешкӗн": 3743,
    "килнине": 3744,
    "иртнине": 3745,
    "вӑйӗ": 3746,
    "выртрӗ": 3747,
    "аскӑн@@": 3748,
    "Хыпар": 3749,
    "Хи@@": 3750,
    "Сывлӑ@@": 3751,
    "Иоав": 3752,
    "Вал@@": 3753,
    "ӗҫлекен@@": 3754,
    "ӑҫлӑ": 3755,
    "ӑста": 3756,
    "ылтӑн@@": 3757,
    "ывӑлу@@": 3758,
    "шутла@@": 3759,
    "чӗркуҫ@@": 3760,
    "чӗнмесӗр": 3761,
    "хӗре": 3762,
    "хӑвӑ@@": 3763,
    "уҫӑл@@": 3764,
    "учреждени@@": 3765,
    "тӗппи@@": 3766,
    "тӑрӗҫ": 3767,
    "тусене": 3768,
    "телӗ": 3769,
    "сут@@": 3770,
    "ника@@": 3771,
    "машина": 3772,
    "лӗхпе": 3773,
    "лӗм": 3774,
    "лӑху": 3775,
    "кӑларчӗ": 3776,
    "кпа": 3777,
    "йынӑш@@": 3778,
    "информаци": 3779,
    "илле": 3780,
    "емӗн": 3781,
    "айӗнчи": 3782,
    "айк@@": 3783,
    "Сер@@": 3784,
    "Сав@@": 3785,
    "Горбунов": 3786,
    "Бо@@": 3787,
    "Авра@@": 3788,
    "],": 3789,
    "ӗччӗ": 3790,
    "Ҫӑ@@": 3791,
    "ялан": 3792,
    "ывӑлӗсемпе": 3793,
    "хамӑра": 3794,
    "ухмах@@": 3795,
    "тӗрлӗрен": 3796,
    "тӑччӑр": 3797,
    "тавлаш@@": 3798,
    "суд": 3799,
    "савӑт": 3800,
    "пушхирте": 3801,
    "нов": 3802,
    "мех": 3803,
    "лана": 3804,
    "кӗсен": 3805,
    "кӑтартать": 3806,
    "курать": 3807,
    "кри": 3808,
    "йӗркесене": 3809,
    "илтсе": 3810,
    "икҫӗр": 3811,
    "жур@@": 3812,
    "вырӑс": 3813,
    "Чӗр@@": 3814,
    "Мер@@": 3815,
    "Кай@@": 3816,
    "Иеремия": 3817,
    "Еф@@": 3818,
    "ӗҫлет": 3819,
    "ӑнлантарса": 3820,
    "ӑмсем": 3821,
    "ҫӗкле@@": 3822,
    "ҫуртсем": 3823,
    "ҫуратнӑ": 3824,
    "ҫат@@": 3825,
    "ҫапӑҫу@@": 3826,
    "ыйту": 3827,
    "хӑп@@": 3828,
    "хисене": 3829,
    "тармалли": 3830,
    "таранах": 3831,
    "стсем": 3832,
    "систер@@": 3833,
    "сапал@@": 3834,
    "рон": 3835,
    "пӗлтерме": 3836,
    "пӑхсан": 3837,
    "пысӑк@@": 3838,
    "пурлӑх": 3839,
    "маллах": 3840,
    "лерӗҫ": 3841,
    "кӑвакар@@": 3842,
    "каятӑп": 3843,
    "камӑн": 3844,
    "еткерлӗхе": 3845,
    "ертӳ@@": 3846,
    "ака": 3847,
    "ӗненекен": 3848,
    "ӑсс@@": 3849,
    "ҫилли": 3850,
    "Ҫамрӑк": 3851,
    "ыв@@": 3852,
    "чури": 3853,
    "часрах": 3854,
    "хыҫӗнче": 3855,
    "хуҫа": 3856,
    "улми": 3857,
    "тупӑш": 3858,
    "тинӗс@@": 3859,
    "тарни": 3860,
    "сывлӑх": 3861,
    "статья": 3862,
    "салам@@": 3863,
    "саккӑр@@": 3864,
    "пурри": 3865,
    "пая": 3866,
    "ов@@": 3867,
    "ния": 3868,
    "лӗхӗн": 3869,
    "лекнӗ": 3870,
    "лаша": 3871,
    "кӗрекен": 3872,
    "кӗнче": 3873,
    "кӑтартрӗ": 3874,
    "кӑмӑлӗ": 3875,
    "кӑларать": 3876,
    "ко": 3877,
    "кинчен": 3878,
    "кайӗҫ": 3879,
    "йӗре": 3880,
    "вӑрӑ": 3881,
    "аптӑра@@": 3882,
    "Халӑх@@": 3883,
    "Никола@@": 3884,
    "До@@": 3885,
    "Ачасем": 3886,
    "ӗҫлет@@": 3887,
    "ҫанталӑк": 3888,
    "ҫакӑнса": 3889,
    "чикӗ": 3890,
    "хӑвӑрӑн": 3891,
    "федераци": 3892,
    "ултал@@": 3893,
    "сад@@": 3894,
    "савнӑ": 3895,
    "палӑ@@": 3896,
    "мир@@": 3897,
    "латӑн": 3898,
    "кӑшкӑ@@": 3899,
    "кӑм": 3900,
    "куҫарса": 3901,
    "кинчи": 3902,
    "килӗшӳ": 3903,
    "калӑпӑш@@": 3904,
    "илтрӗм": 3905,
    "илекен": 3906,
    "варринче": 3907,
    "вале@@": 3908,
    "Юр@@": 3909,
    "Тамара": 3910,
    "Раҫҫейри": 3911,
    "К": 3912,
    "Анне": 3913,
    "»@@": 3914,
    "ӑшӗнчен": 3915,
    "ӑст@@": 3916,
    "ҫырла@@": 3917,
    "ҫыпӑҫ@@": 3918,
    "ҫирӗппӗн": 3919,
    "ҫипе": 3920,
    "ҫин": 3921,
    "юратать": 3922,
    "шӑршӑ": 3923,
    "чӗтрен@@": 3924,
    "хӑтӑ@@": 3925,
    "хайхи": 3926,
    "фон": 3927,
    "уйӑхра": 3928,
    "техно@@": 3929,
    "сывал@@": 3930,
    "суд@@": 3931,
    "сасӑлав": 3932,
    "ря@@": 3933,
    "республикӑри": 3934,
    "пуҫҫапнӑ": 3935,
    "пуҫтарнӑ": 3936,
    "поэ@@": 3937,
    "наци": 3938,
    "ласах": 3939,
    "йӗркеллӗ": 3940,
    "йӗркеленӗ": 3941,
    "ец": 3942,
    "вӑя": 3943,
    "атчӗҫ": 3944,
    "арчине": 3945,
    "анн@@": 3946,
    "амӑш@@": 3947,
    "Юлашки": 3948,
    "Тӗрӗс": 3949,
    "С": 3950,
    "Ну@@": 3951,
    "Гри@@": 3952,
    "Вӗсенчен": 3953,
    "ӳкернӗ": 3954,
    "ячӗҫ": 3955,
    "юратакан": 3956,
    "чура": 3957,
    "че": 3958,
    "чатӑрӗ": 3959,
    "хастар": 3960,
    "тӑрӑша@@": 3961,
    "тыткӑн@@": 3962,
    "тимӗр@@": 3963,
    "такан@@": 3964,
    "пӑрахӑҫ@@": 3965,
    "пухӑннӑ": 3966,
    "пурнӑҫлакан": 3967,
    "нченех": 3968,
    "началь@@": 3969,
    "малаш@@": 3970,
    "леви@@": 3971,
    "кӗреш@@": 3972,
    "кӑмӑллӑн": 3973,
    "комисси@@": 3974,
    "командир@@": 3975,
    "кере@@": 3976,
    "инвести@@": 3977,
    "ессе": 3978,
    "выртса": 3979,
    "арӑма": 3980,
    "Че@@": 3981,
    "Турри@@": 3982,
    "Сал@@": 3983,
    "Пӗррехинче": 3984,
    "Пал@@": 3985,
    "Грушницкий": 3986,
    "ҫӳрет@@": 3987,
    "юратат@@": 3988,
    "юнне": 3989,
    "чере@@": 3990,
    "хӑ": 3991,
    "хуша@@": 3992,
    "тухрӑм": 3993,
    "тулса": 3994,
    "тасси": 3995,
    "статй@@": 3996,
    "сис@@": 3997,
    "процент": 3998,
    "ответ": 3999,
    "мисене": 4000,
    "кӗске": 4001,
    "кӑмӑ@@": 4002,
    "кивӗ": 4003,
    "илмелле": 4004,
    "вӑтан@@": 4005,
    "атӑ": 4006,
    "Тӳрӗ": 4007,
    "Тав@@": 4008,
    "Сы@@": 4009,
    "Манассия": 4010,
    "Куз@@": 4011,
    "Иванович": 4012,
    ")@@": 4013,
    "ӑсене": 4014,
    "ӑка": 4015,
    "ҫӳҫ@@": 4016,
    "ҫыннисен": 4017,
    "ҫывӑрма": 4018,
    "ҫывхар@@": 4019,
    "ҫимӗҫне": 4020,
    "ҫавнашкал": 4021,
    "шӑрши": 4022,
    "чӑрман@@": 4023,
    "ц": 4024,
    "хӗрсем": 4025,
    "хӑшне": 4026,
    "тӑрӑшать": 4027,
    "тӑршшӗпех": 4028,
    "тухӑ@@": 4029,
    "сӳтсе": 4030,
    "сирсе": 4031,
    "симӗс": 4032,
    "рахпа": 4033,
    "пӗрисем": 4034,
    "патӑр": 4035,
    "парасси": 4036,
    "мер": 4037,
    "лӑхна": 4038,
    "кӗлтунӑ": 4039,
    "иудейсене": 4040,
    "иудей@@": 4041,
    "илтӗнчӗ": 4042,
    "иле": 4043,
    "израиль@@": 4044,
    "дий": 4045,
    "вӗренӳ": 4046,
    "ач@@": 4047,
    "ЧР": 4048,
    "Иакова": 4049,
    "Аттем": 4050,
    "70": 4051,
    "2011": 4052,
    "ӗлӗкхи": 4053,
    "ҫиел@@": 4054,
    "ытар@@": 4055,
    "чет": 4056,
    "хисеплӗ": 4057,
    "хирте": 4058,
    "халал": 4059,
    "умӗнчех": 4060,
    "темелле": 4061,
    "сӳн@@": 4062,
    "суту": 4063,
    "ста": 4064,
    "ради@@": 4065,
    "пӳ": 4066,
    "пуш": 4067,
    "пусма": 4068,
    "пурӑнӑҫа": 4069,
    "пичче": 4070,
    "ору@@": 4071,
    "нам@@": 4072,
    "нал@@": 4073,
    "мӗс@@": 4074,
    "миҫе": 4075,
    "лӑхран": 4076,
    "килеҫҫӗ": 4077,
    "калаҫҫӗ": 4078,
    "аялалла": 4079,
    "аталанӑвӗн": 4080,
    "асӑнса": 4081,
    "авалхи": 4082,
    "Ял@@": 4083,
    "Шы@@": 4084,
    "Ханаан": 4085,
    "Иван@@": 4086,
    "54": 4087,
    "53": 4088,
    "ӑҫа": 4089,
    "ҫӗкленӗ": 4090,
    "ҫен": 4091,
    "ямалла": 4092,
    "юри@@": 4093,
    "ыттисене": 4094,
    "тивӗҫ": 4095,
    "тасалӑх": 4096,
    "сивӗ@@": 4097,
    "рӑпа": 4098,
    "пырӗ": 4099,
    "пуҫа": 4100,
    "пурччӗ": 4101,
    "производ@@": 4102,
    "прен": 4103,
    "каят@@": 4104,
    "йытӑ": 4105,
    "етчӗ": 4106,
    "ерен": 4107,
    "гер@@": 4108,
    "вӗҫӗ": 4109,
    "вӗренме": 4110,
    "вӗренекенӗсем": 4111,
    "вула@@": 4112,
    "аҫу@@": 4113,
    "аша@@": 4114,
    "Туррине": 4115,
    "Сасартӑк": 4116,
    "Илия": 4117,
    "Иису@@": 4118,
    "Из@@": 4119,
    "].": 4120,
    "2019": 4121,
    "ӳсӗр@@": 4122,
    "ӑмсене": 4123,
    "ҫирӗплет@@": 4124,
    "Ҫурта": 4125,
    "чӗлхине": 4126,
    "хытӑрах": 4127,
    "управ@@": 4128,
    "тро@@": 4129,
    "татӑл@@": 4130,
    "тапӑр": 4131,
    "пӗтрӗ": 4132,
    "пӗлес": 4133,
    "пысӑкрах": 4134,
    "пурӑнса": 4135,
    "патнех": 4136,
    "пас": 4137,
    "мухтава": 4138,
    "масассӑн": 4139,
    "латнӑ": 4140,
    "килен@@": 4141,
    "йывӑҫӗ": 4142,
    "айӑпа": 4143,
    "Усал": 4144,
    "Навуходоносор": 4145,
    "Вӑхӑ@@": 4146,
    "ҫӗршыва": 4147,
    "ҫутӑ@@": 4148,
    "ҫаратса": 4149,
    "этеме": 4150,
    "шарла@@": 4151,
    "чыс@@": 4152,
    "хуласем": 4153,
    "урисене": 4154,
    "тӗс@@": 4155,
    "тытӑнчӗҫ": 4156,
    "туман": 4157,
    "тулнӑ": 4158,
    "тахҫанах": 4159,
    "тасшӑн": 4160,
    "таса@@": 4161,
    "тарсан": 4162,
    "такӑн@@": 4163,
    "таки": 4164,
    "таврари": 4165,
    "сӑвӑ@@": 4166,
    "сехӗр@@": 4167,
    "сехетре": 4168,
    "сарӑлса": 4169,
    "сарӑ": 4170,
    "расси@@": 4171,
    "пӗлмесӗр": 4172,
    "пулӑттӑм": 4173,
    "пули@@": 4174,
    "нов@@": 4175,
    "ниепле": 4176,
    "мӗшӗнчен": 4177,
    "кӳрет": 4178,
    "кашӑ@@": 4179,
    "етӗр": 4180,
    "асла": 4181,
    "аппа": 4182,
    "ад@@": 4183,
    "Шу@@": 4184,
    "Федерацин": 4185,
    "Питӗ": 4186,
    "Пер@@": 4187,
    "Кая@@": 4188,
    "За@@": 4189,
    "0": 4190,
    "ҫутат@@": 4191,
    "ҫавра@@": 4192,
    "шик@@": 4193,
    "хӗрхенсе": 4194,
    "усан@@": 4195,
    "тӗллӗн": 4196,
    "тухсан": 4197,
    "тупма": 4198,
    "техника": 4199,
    "тапранса": 4200,
    "таль@@": 4201,
    "сӑртран": 4202,
    "пле@@": 4203,
    "паттӑр": 4204,
    "наш@@": 4205,
    "мин": 4206,
    "мат": 4207,
    "литера@@": 4208,
    "ланма": 4209,
    "кӑнтӑрла": 4210,
    "кел": 4211,
    "каҫа@@": 4212,
    "каса": 4213,
    "истори@@": 4214,
    "ирӗкӗпе": 4215,
    "илтӗнсе": 4216,
    "илтӗнет": 4217,
    "ессине": 4218,
    "Хӑш": 4219,
    "Каҫ@@": 4220,
    "Кана@@": 4221,
    "Иса@@": 4222,
    "Аса": 4223,
    "Андре@@": 4224,
    "Ак": 4225,
    "10@@": 4226,
    "ӑрӑвӗ": 4227,
    "Ӑс@@": 4228,
    "ҫӳл@@": 4229,
    "ҫырӑва": 4230,
    "ҫыннин": 4231,
    "ҫуса": 4232,
    "ҫитмен@@": 4233,
    "ҫийӗр": 4234,
    "Ҫывӑ@@": 4235,
    "чӗлхипе": 4236,
    "чем": 4237,
    "цил@@": 4238,
    "хушнипе": 4239,
    "утӑм": 4240,
    "тӗтӗм": 4241,
    "тухӑр": 4242,
    "турӗҫ": 4243,
    "тумтирӗ": 4244,
    "терме": 4245,
    "танпа": 4246,
    "талант": 4247,
    "республи@@": 4248,
    "пӗтӗм@@": 4249,
    "пӗлекен": 4250,
    "пусмӑр@@": 4251,
    "пахчи@@": 4252,
    "норматив@@": 4253,
    "кра": 4254,
    "кенӗ": 4255,
    "зар@@": 4256,
    "дра@@": 4257,
    "вӗҫ": 4258,
    "вит@@": 4259,
    "асӑрхар@@": 4260,
    "анне@@": 4261,
    "Египетран": 4262,
    "ӑҫлӑх": 4263,
    "ҫӗнчи": 4264,
    "ҫӑвне": 4265,
    "ҫутаткӑ@@": 4266,
    "Ҫӗн@@": 4267,
    "Ҫавӑ": 4268,
    "шӑп@@": 4269,
    "шырама": 4270,
    "шайӗнче": 4271,
    "хӑвӑрт@@": 4272,
    "хӑварма": 4273,
    "хыҫҫ@@": 4274,
    "хак": 4275,
    "усӑллӑ": 4276,
    "тӳрӗлӗх": 4277,
    "субъек@@": 4278,
    "сирӗнтен": 4279,
    "сехӗрлен@@": 4280,
    "салхул@@": 4281,
    "реш@@": 4282,
    "патшалӑхӑн": 4283,
    "ой": 4284,
    "нисенчен": 4285,
    "мӗҫ@@": 4286,
    "мунч@@": 4287,
    "мисем": 4288,
    "кӗҫӗн@@": 4289,
    "куратӑп": 4290,
    "кунчченех": 4291,
    "коридо@@": 4292,
    "килекен": 4293,
    "йӗсемпе": 4294,
    "вӗри": 4295,
    "ашшӗн": 4296,
    "аф": 4297,
    "айӗнчен": 4298,
    "Кӑҫал": 4299,
    "Кон@@": 4300,
    "Ги@@": 4301,
    "Галаад": 4302,
    "ҫӑсене": 4303,
    "ҫукчӗ": 4304,
    "ҫити@@": 4305,
    "юланут@@": 4306,
    "ыйтма": 4307,
    "шӑппӑн": 4308,
    "шутпа": 4309,
    "хӑйӑр": 4310,
    "хурать": 4311,
    "хуларан": 4312,
    "тӳпере": 4313,
    "тя@@": 4314,
    "тымар@@": 4315,
    "тейӗҫ": 4316,
    "таҫ@@": 4317,
    "сӗтӗр@@": 4318,
    "ско@@": 4319,
    "рисен": 4320,
    "пӗлмест": 4321,
    "пӗлет@@": 4322,
    "пурин@@": 4323,
    "парӗҫ": 4324,
    "никӗс@@": 4325,
    "мӗнпе": 4326,
    "метр": 4327,
    "лерӗм": 4328,
    "лани@@": 4329,
    "курӑнакан": 4330,
    "кунсем": 4331,
    "каланса": 4332,
    "илеҫҫӗ": 4333,
    "ертӳҫи": 4334,
    "дри@@": 4335,
    "ведени@@": 4336,
    "аҫу": 4337,
    "Шупашкарти": 4338,
    "Ху": 4339,
    "Тӗр@@": 4340,
    "Нумай": 4341,
    "Моисейпе": 4342,
    "Аса@@": 4343,
    "80": 4344,
    "Ӗҫ": 4345,
    "ӑртан": 4346,
    "ӑнтан": 4347,
    "ҫан": 4348,
    "ҫамрӑк@@": 4349,
    "япаласене": 4350,
    "чир": 4351,
    "хӗрарӑма": 4352,
    "хӗвел@@": 4353,
    "хушӑрах": 4354,
    "хушма": 4355,
    "тӑванӗсене": 4356,
    "телей": 4357,
    "тарӑп": 4358,
    "рет": 4359,
    "пӗрер": 4360,
    "пурнӑ@@": 4361,
    "органӗсен": 4362,
    "нӑскерсем": 4363,
    "нӑранпа": 4364,
    "нимӗҫсен": 4365,
    "левитсене": 4366,
    "клан@@": 4367,
    "кара@@": 4368,
    "ишсе": 4369,
    "ирӗкне": 4370,
    "илтӗр": 4371,
    "вилӗм@@": 4372,
    "аш": 4373,
    "аслӑласа": 4374,
    "апо@@": 4375,
    "Сӑмах": 4376,
    "Кӑш@@": 4377,
    "Василь@@": 4378,
    "Ашшӗ": 4379,
    "Алексее": 4380,
    "ӑрӑн": 4381,
    "ҫӳлтен": 4382,
    "ҫемй@@": 4383,
    "ярас": 4384,
    "эко@@": 4385,
    "чка": 4386,
    "ут": 4387,
    "тӳпене": 4388,
    "тӑвасси": 4389,
    "тулӑ": 4390,
    "террито@@": 4391,
    "скерсене": 4392,
    "сем@@": 4393,
    "сала@@": 4394,
    "пурлӑхне": 4395,
    "пор@@": 4396,
    "нимӗҫсем": 4397,
    "манччӗ": 4398,
    "летӗп": 4399,
    "ирӗклӗ": 4400,
    "ведомоҫӗсем": 4401,
    "ачаш@@": 4402,
    "Марья": 4403,
    "Ел@@": 4404,
    "Ву@@": 4405,
    "92": 4406,
    "ӳн@@": 4407,
    "ҫӗрелле": 4408,
    "ҫум@@": 4409,
    "ҫарне": 4410,
    "Ҫын": 4411,
    "шалти": 4412,
    "чей": 4413,
    "хӗҫ@@": 4414,
    "хӗне@@": 4415,
    "хурлӑх": 4416,
    "тӑтӑшах": 4417,
    "тетпӗр": 4418,
    "пушхир": 4419,
    "путек": 4420,
    "пуснӑ": 4421,
    "пуканӗ": 4422,
    "председате@@": 4423,
    "нау@@": 4424,
    "лу": 4425,
    "латма": 4426,
    "каҫхи": 4427,
    "калаҫать": 4428,
    "ерт@@": 4429,
    "дом": 4430,
    "вӑрах@@": 4431,
    "вӑкӑр": 4432,
    "анине": 4433,
    "авӑр@@": 4434,
    "Шел": 4435,
    "Кӑн@@": 4436,
    "Аз@@": 4437,
    "57": 4438,
    "ӗрче@@": 4439,
    "ҫӳллӗ@@": 4440,
    "ҫӑварне": 4441,
    "ҫумӗ@@": 4442,
    "ҫитменнине": 4443,
    "юрласа": 4444,
    "шӑматкун": 4445,
    "хуҫа@@": 4446,
    "хушшӑрта": 4447,
    "хисепле@@": 4448,
    "фили@@": 4449,
    "утмӑл": 4450,
    "тӗллев": 4451,
    "тӑрах": 4452,
    "тӑпра": 4453,
    "телей@@": 4454,
    "тей@@": 4455,
    "тарӑхса": 4456,
    "сӑрӑн": 4457,
    "сыхланса": 4458,
    "сывласа": 4459,
    "раш@@": 4460,
    "пӑшӑл@@": 4461,
    "пыра": 4462,
    "пуҫлӑхне": 4463,
    "пут@@": 4464,
    "пурӑнӑр": 4465,
    "пулӑн": 4466,
    "миллион": 4467,
    "лӗм@@": 4468,
    "лар": 4469,
    "кӑт@@": 4470,
    "каламан": 4471,
    "кал": 4472,
    "илтсен": 4473,
    "вӑна": 4474,
    "вра@@": 4475,
    "васк@@": 4476,
    "алӑкӗ": 4477,
    "Турӑҫӑм": 4478,
    "Пас@@": 4479,
    "Исав": 4480,
    "Исаак": 4481,
    "Египе@@": 4482,
    "Вӗ@@": 4483,
    "Ванькка": 4484,
    "ӗненсе": 4485,
    "ҫӑн": 4486,
    "ҫите@@": 4487,
    "ҫивӗч": 4488,
    "ҫавсем": 4489,
    "шывсем": 4490,
    "шутланать": 4491,
    "чӗрем": 4492,
    "чах@@": 4493,
    "хӑех": 4494,
    "хӑварса": 4495,
    "упраса": 4496,
    "тӑсса": 4497,
    "тӑррине": 4498,
    "тӑратӑн": 4499,
    "тӑвай@@": 4500,
    "тут@@": 4501,
    "тус": 4502,
    "турӑн": 4503,
    "такам": 4504,
    "сыпӑка": 4505,
    "сухал@@": 4506,
    "сту": 4507,
    "стимсем": 4508,
    "священника": 4509,
    "сам@@": 4510,
    "пӳл@@": 4511,
    "пӗртте": 4512,
    "ниме": 4513,
    "мӑш": 4514,
    "лӑпкӑн": 4515,
    "кӗмӗле": 4516,
    "карап": 4517,
    "йӗрӗх@@": 4518,
    "илӗҫ": 4519,
    "жен@@": 4520,
    "евна": 4521,
    "вӗре@@": 4522,
    "Хам@@": 4523,
    "Уй@@": 4524,
    "Сывлӑш@@": 4525,
    "Египета": 4526,
    "Аш@@": 4527,
    "Андрей": 4528,
    ",»": 4529,
    "ҫитме": 4530,
    "ҫирӗплетсе": 4531,
    "япӑх": 4532,
    "юлать": 4533,
    "ькка": 4534,
    "шӑтӑк": 4535,
    "шӑллӑ": 4536,
    "чухӑн": 4537,
    "чечек": 4538,
    "хыпса": 4539,
    "халӑхпа": 4540,
    "федера@@": 4541,
    "тӗк": 4542,
    "тутӑр": 4543,
    "сӗртӗн@@": 4544,
    "сӑмахӗсем": 4545,
    "рем@@": 4546,
    "пӳлӗм": 4547,
    "пуҫҫа@@": 4548,
    "пуҫар@@": 4549,
    "пулӑп": 4550,
    "продук@@": 4551,
    "писем": 4552,
    "опера@@": 4553,
    "нисемпе": 4554,
    "медицина": 4555,
    "лӑп@@": 4556,
    "лисен": 4557,
    "кӗртме": 4558,
    "кӑҫал": 4559,
    "кунхине": 4560,
    "ксемпе": 4561,
    "конкур@@": 4562,
    "калани@@": 4563,
    "кайман": 4564,
    "илтер@@": 4565,
    "иксӗмӗр": 4566,
    "же@@": 4567,
    "гек@@": 4568,
    "аякра": 4569,
    "асап@@": 4570,
    "Хо@@": 4571,
    "Фи@@": 4572,
    "Тытса": 4573,
    "Правитель@@": 4574,
    "Лай@@": 4575,
    "Иона@@": 4576,
    "Даниил": 4577,
    "ӑрӑвӗсем": 4578,
    "ҫӑнӑх@@": 4579,
    "ҫут": 4580,
    "ҫилленсе": 4581,
    "ятна": 4582,
    "чӗне@@": 4583,
    "чӑ": 4584,
    "чах": 4585,
    "хыҫал@@": 4586,
    "хуравланӑ": 4587,
    "хулпуҫ@@": 4588,
    "хулинчен": 4589,
    "хирти": 4590,
    "фей": 4591,
    "фан@@": 4592,
    "турттармалли": 4593,
    "тсемпе": 4594,
    "тес@@": 4595,
    "сӗрсе": 4596,
    "пӗлтерекен": 4597,
    "пукан": 4598,
    "пиллӗх": 4599,
    "пекки": 4600,
    "обществӑ@@": 4601,
    "канди@@": 4602,
    "енех": 4603,
    "Э": 4604,
    "Шупашкарта": 4605,
    "Лешӗсем": 4606,
    "Вил@@": 4607,
    "«,": 4608,
    "]@@": 4609,
    "73": 4610,
    "ӗҫнӗ": 4611,
    "ӑссӑр@@": 4612,
    "ҫыран": 4613,
    "ҫывӑрнӑ": 4614,
    "ҫимӗҫ@@": 4615,
    "ялти": 4616,
    "эрне": 4617,
    "ылтӑнран": 4618,
    "шиклен@@": 4619,
    "шав": 4620,
    "чӗрке@@": 4621,
    "хурӑн@@": 4622,
    "хаваслӑ": 4623,
    "унчченхи": 4624,
    "уйӑрнӑ": 4625,
    "уйрӑлса": 4626,
    "тӗнлӗ": 4627,
    "тӑнлӑ": 4628,
    "туслӑ": 4629,
    "турра": 4630,
    "тори@@": 4631,
    "тепӗри": 4632,
    "тавҫӑрса": 4633,
    "сыл@@": 4634,
    "сив@@": 4635,
    "ратнӑ": 4636,
    "раса": 4637,
    "пӗлей@@": 4638,
    "пилӗ@@": 4639,
    "парнене": 4640,
    "нӑпа": 4641,
    "латпӑр": 4642,
    "комплек@@": 4643,
    "бан@@": 4644,
    "асӑрхат@@": 4645,
    "Ул@@": 4646,
    "Пӑ@@": 4647,
    "Пар@@": 4648,
    "Елисей": 4649,
    "Даша": 4650,
    "Виҫ@@": 4651,
    "ӗҫкӗ": 4652,
    "ҫӳлте": 4653,
    "ҫӗршывра": 4654,
    "ҫӑвӗ": 4655,
    "ҫителӗклӗ": 4656,
    "юрату": 4657,
    "ье": 4658,
    "ывӑлӑ@@": 4659,
    "цине": 4660,
    "хӑрат@@": 4661,
    "хулисене": 4662,
    "хуласене": 4663,
    "туй": 4664,
    "тарсах": 4665,
    "сӑк": 4666,
    "сфер@@": 4667,
    "став@@": 4668,
    "служби@@": 4669,
    "рон@@": 4670,
    "ралла": 4671,
    "пӗрре@@": 4672,
    "пиҫих@@": 4673,
    "пилӗк@@": 4674,
    "пиллӗкмӗш": 4675,
    "пиллӗ@@": 4676,
    "никӗ": 4677,
    "никсем": 4678,
    "нар": 4679,
    "налук": 4680,
    "мала": 4681,
    "кӳл@@": 4682,
    "кӑра@@": 4683,
    "куҫу": 4684,
    "кла": 4685,
    "каччӑ": 4686,
    "качч@@": 4687,
    "кам@@": 4688,
    "кайӑксем": 4689,
    "кайрӑмӑр": 4690,
    "иртсен": 4691,
    "есӗр": 4692,
    "вырӑсла": 4693,
    "вилӗ@@": 4694,
    "вать": 4695,
    "Юрать": 4696,
    "Сергей": 4697,
    "Ве@@": 4698,
    "ӗлкӗрей@@": 4699,
    "ӑсталӑх@@": 4700,
    "ҫырт@@": 4701,
    "ячӗллӗ": 4702,
    "шанчӑк@@": 4703,
    "чӗрчун@@": 4704,
    "хӑна": 4705,
    "хана@@": 4706,
    "усене": 4707,
    "тӗрек@@": 4708,
    "тӑрас": 4709,
    "тӑвакан@@": 4710,
    "торӗ": 4711,
    "тинӗсе": 4712,
    "татӑк@@": 4713,
    "тарасшӑн": 4714,
    "тарасси": 4715,
    "сцен@@": 4716,
    "стена": 4717,
    "сна": 4718,
    "сех@@": 4719,
    "савӑнӑҫлӑн": 4720,
    "ранпа": 4721,
    "представи@@": 4722,
    "питлӗ": 4723,
    "пирӗнтен": 4724,
    "палӑртать": 4725,
    "номер@@": 4726,
    "мероприяти@@": 4727,
    "мас": 4728,
    "лӑскер": 4729,
    "лаптӑ@@": 4730,
    "кӗртсе": 4731,
    "кӑнтӑр@@": 4732,
    "курни": 4733,
    "килмен": 4734,
    "канӑҫ@@": 4735,
    "йӗнчи": 4736,
    "др@@": 4737,
    "дей": 4738,
    "вырӑнаҫнӑ": 4739,
    "вре@@": 4740,
    "вел": 4741,
    "Юрий": 4742,
    "Чир@@": 4743,
    "Часах": 4744,
    "Ф": 4745,
    "Пӗрре": 4746,
    "Йывӑ@@": 4747,
    "Вавилона": 4748,
    "Аха@@": 4749,
    "Авессалом": 4750,
    "ӳсӗр": 4751,
    "ҫулталӑк": 4752,
    "ҫулсем": 4753,
    "ҫити": 4754,
    "ҫитес": 4755,
    "Ҫӳлхуҫашӑн": 4756,
    "Ҫул": 4757,
    "ятарлӑ": 4758,
    "чӗртсе": 4759,
    "чулпа": 4760,
    "чиксем": 4761,
    "хумхан@@": 4762,
    "урине": 4763,
    "улттӑмӗш": 4764,
    "тӗслӗх": 4765,
    "тӗлӗк": 4766,
    "тӗллев@@": 4767,
    "тӑрсан": 4768,
    "тейӗ": 4769,
    "скерӗ": 4770,
    "сирпӗ@@": 4771,
    "священниксемпе": 4772,
    "сарӑл@@": 4773,
    "рин": 4774,
    "пуҫламӑш@@": 4775,
    "пултараймастӑп": 4776,
    "патшийӗн": 4777,
    "от": 4778,
    "обще@@": 4779,
    "нь": 4780,
    "ниҫта": 4781,
    "мул": 4782,
    "местӗр": 4783,
    "маха": 4784,
    "кустӑр@@": 4785,
    "класс": 4786,
    "килтӗм": 4787,
    "кайни": 4788,
    "йӑнӑш@@": 4789,
    "госпи@@": 4790,
    "витӗн@@": 4791,
    "Юрӗ": 4792,
    "Сам@@": 4793,
    "Пӗрре@@": 4794,
    "О": 4795,
    "Гаврило@@": 4796,
    "ӳсе@@": 4797,
    "ӳке@@": 4798,
    "ӗҫӗн": 4799,
    "ӗнер": 4800,
    "ӑса": 4801,
    "ӑмран": 4802,
    "ҫӑра": 4803,
    "ҫӑлӑнӑҫ": 4804,
    "ҫынну@@": 4805,
    "ҫынн@@": 4806,
    "ҫух@@": 4807,
    "ҫапӑҫӑва": 4808,
    "ҫапнӑ": 4809,
    "ялӗнче": 4810,
    "ютран": 4811,
    "ывӑн@@": 4812,
    "чӗтресе": 4813,
    "чана": 4814,
    "хӗм": 4815,
    "хӗве@@": 4816,
    "хӑюл@@": 4817,
    "хӑпарса": 4818,
    "хушӑ": 4819,
    "уҫнӑ": 4820,
    "тӳпер@@": 4821,
    "туйрӗ": 4822,
    "трупа": 4823,
    "сӗт@@": 4824,
    "ствӑ@@": 4825,
    "сиен": 4826,
    "пӗлтер": 4827,
    "пытӑр": 4828,
    "пункчӗн": 4829,
    "поселени@@": 4830,
    "официаллӑ": 4831,
    "нач@@": 4832,
    "кӗтнӗ": 4833,
    "курӑнчӗ": 4834,
    "комп@@": 4835,
    "йӑн": 4836,
    "илмен": 4837,
    "журнали@@": 4838,
    "ее": 4839,
    "вас": 4840,
    "астӑ@@": 4841,
    "Тӗп": 4842,
    "Темиҫе": 4843,
    "Рай@@": 4844,
    "Но@@": 4845,
    "Капитан": 4846,
    "Или@@": 4847,
    "Гад": 4848,
    "Ван@@": 4849,
    "Ангелӗ": 4850,
    "Ааро@@": 4851,
    "ҫӗн@@": 4852,
    "ҫурӑл@@": 4853,
    "ҫапӑҫнӑ": 4854,
    "чунӑма": 4855,
    "хӗтӗр@@": 4856,
    "хӗлне": 4857,
    "хӑюллӑ": 4858,
    "хурал": 4859,
    "хуна@@": 4860,
    "хипе": 4861,
    "хаҫат@@": 4862,
    "фра@@": 4863,
    "тӑххӑр@@": 4864,
    "тӑсӑлса": 4865,
    "тӑвансем": 4866,
    "тыр@@": 4867,
    "тустар@@": 4868,
    "тинкерсе": 4869,
    "сӑвап@@": 4870,
    "сшӗн": 4871,
    "стро@@": 4872,
    "стакан": 4873,
    "сехе@@": 4874,
    "пӗтӗмӗшле": 4875,
    "пурнӑҫра": 4876,
    "пулӑшать": 4877,
    "пукан@@": 4878,
    "нен@@": 4879,
    "местӗн": 4880,
    "маррине": 4881,
    "малти": 4882,
    "маллаччӗ": 4883,
    "лӗн@@": 4884,
    "лов": 4885,
    "кӗрей@@": 4886,
    "кӗнчен": 4887,
    "комендан@@": 4888,
    "иртет": 4889,
    "енхи": 4890,
    "др": 4891,
    "граф@@": 4892,
    "вӑрах": 4893,
    "вел@@": 4894,
    "ашшӗпе": 4895,
    "аслат@@": 4896,
    "аллу": 4897,
    "М": 4898,
    "Кир@@": 4899,
    "Ил@@": 4900,
    "Валери@@": 4901,
    "Ахав": 4902,
    "62": 4903,
    "ӳчӗ": 4904,
    "ҫырнине": 4905,
    "ҫурӑ": 4906,
    "ҫурат@@": 4907,
    "Ҫамрӑ@@": 4908,
    "чӗрлӗх": 4909,
    "ципе": 4910,
    "хуть": 4911,
    "хулари": 4912,
    "хах": 4913,
    "халиччен": 4914,
    "утнӑ": 4915,
    "туртӑн@@": 4916,
    "там@@": 4917,
    "стере@@": 4918,
    "поч@@": 4919,
    "кул": 4920,
    "асли": 4921,
    "аллу@@": 4922,
    "Хамӑр": 4923,
    "Лю@@": 4924,
    "ҫӑр@@": 4925,
    "тика": 4926,
    "тесси": 4927,
    "минист@@": 4928,
    "мил@@": 4929,
    "исто@@": 4930,
    "инке": 4931,
    "ата@@": 4932,
    "амор@@": 4933,
    "Комиссар": 4934,
    "Ду@@": 4935,
    "64": 4936,
    "2009": 4937,
    "ья": 4938,
    "шӗнчен": 4939,
    "шер@@": 4940,
    "член@@": 4941,
    "тон@@": 4942,
    "тек": 4943,
    "талан@@": 4944,
    "прия@@": 4945,
    "пози@@": 4946,
    "мес@@": 4947,
    "мак": 4948,
    "йӑн@@": 4949,
    "Хев@@": 4950,
    "Левий": 4951,
    "Интер@@": 4952,
    "Игнатьев": 4953,
    "Атӑ@@": 4954,
    "e@@": 4955,
    "58": 4956,
    "ҫӳрен@@": 4957,
    "юрӑх@@": 4958,
    "ю": 4959,
    "шана": 4960,
    "рех@@": 4961,
    "лин@@": 4962,
    "кӑри": 4963,
    "кка@@": 4964,
    "имен@@": 4965,
    "илем": 4966,
    "все@@": 4967,
    "вай@@": 4968,
    "ах@@": 4969,
    "Ковал@@": 4970,
    "Ке@@": 4971,
    "Иоа@@": 4972,
    "Алексе@@": 4973,
    "Ай@@": 4974,
    "56": 4975,
    "янхи": 4976,
    "хар": 4977,
    "пове@@": 4978,
    "мӑра": 4979,
    "мӑй@@": 4980,
    "зия": 4981,
    "евич": 4982,
    "гал@@": 4983,
    "Пил@@": 4984,
    "Анфи@@": 4985,
    "I@@": 4986,
    "2010": 4987,
    "экономи@@": 4988,
    "хин": 4989,
    "тӑсӑл@@": 4990,
    "там": 4991,
    "ск": 4992,
    "сия": 4993,
    "ринче": 4994,
    "писто@@": 4995,
    "кро@@": 4996,
    "ена@@": 4997,
    "вӗр": 4998,
    "вир@@": 4999,
    "Тома": 5000,
    "Тат@@": 5001,
    "Пуш@@": 5002,
    ";»;": 5003,
    "61": 5004,
    ".)": 5005,
    "ӗлсе": 5006,
    "шел@@": 5007,
    "статья@@": 5008,
    "специали@@": 5009,
    "сат@@": 5010,
    "пса": 5011,
    "нӗрен": 5012,
    "лам@@": 5013,
    "лай": 5014,
    "лагер@@": 5015,
    "кой@@": 5016,
    "иксӗ@@": 5017,
    "дай": 5018,
    "ват": 5019,
    "бар@@": 5020,
    "Степан": 5021,
    "Сид": 5022,
    "Оля": 5023,
    "Елеазар": 5024,
    "ӑхӑ@@": 5025,
    "хҫан": 5026,
    "херуви@@": 5027,
    "уро@@": 5028,
    "сло@@": 5029,
    "поли@@": 5030,
    "кия": 5031,
    "каза@@": 5032,
    "иу@@": 5033,
    "институ@@": 5034,
    "графи@@": 5035,
    "аял@@": 5036,
    "Тем": 5037,
    "Иосия": 5038,
    "Ваал": 5039,
    "90": 5040,
    "ы": 5041,
    "физ@@": 5042,
    "под@@": 5043,
    "обла@@": 5044,
    "кӑл": 5045,
    "коло@@": 5046,
    "кин@@": 5047,
    "дирек@@": 5048,
    "дво@@": 5049,
    "грам@@": 5050,
    "ато@@": 5051,
    "Тимо@@": 5052,
    "Совет": 5053,
    "Р": 5054,
    "Петро@@": 5055,
    "Май@@": 5056,
    "Дан": 5057,
    "Василий": 5058,
    "Ак@@": 5059,
    "Аарона": 5060,
    "2006": 5061,
    "%": 5062,
    "…»": 5063,
    "ӑрах": 5064,
    "Ҫав@@": 5065,
    "ятар@@": 5066,
    "юб@@": 5067,
    "шкӑн": 5068,
    "фь": 5069,
    "фестивал@@": 5070,
    "фарисей@@": 5071,
    "сей": 5072,
    "сад": 5073,
    "пӑрахӑ@@": 5074,
    "камер@@": 5075,
    "информа@@": 5076,
    "депута@@": 5077,
    "гар@@": 5078,
    "вед@@": 5079,
    "вани@@": 5080,
    "Рувим": 5081,
    "Президен@@": 5082,
    "Кӑ@@": 5083,
    "Иеровоам": 5084,
    "Аза@@": 5085,
    "o@@": 5086,
    "?!": 5087,
    "ӑваш@@": 5088,
    "шуйт@@": 5089,
    "шине@@": 5090,
    "чет@@": 5091,
    "строитель@@": 5092,
    "снаря@@": 5093,
    "сах@@": 5094,
    "рей": 5095,
    "му": 5096,
    "мере": 5097,
    "кило@@": 5098,
    "вич@@": 5099,
    "боль@@": 5100,
    "бин@@": 5101,
    "Свя@@": 5102,
    "Михай@@": 5103,
    "Зо@@": 5104,
    "Елена": 5105,
    "Васильевич": 5106,
    "Ах@@": 5107,
    "a@@": 5108,
    "72": 5109,
    "хӑвӑр@@": 5110,
    "хамӑр@@": 5111,
    "тури@@": 5112,
    "студен@@": 5113,
    "реги@@": 5114,
    "проте@@": 5115,
    "митрий": 5116,
    "лина": 5117,
    "Мӗн@@": 5118,
    "Маша": 5119,
    "Мари@@": 5120,
    "Максим": 5121,
    "Иерихо@@": 5122,
    "Вала@@": 5123,
    "Ама@@": 5124,
    "шӑмат@@": 5125,
    "хуҫал@@": 5126,
    "ть@@": 5127,
    "тас@@": 5128,
    "сне": 5129,
    "офицер@@": 5130,
    "мей": 5131,
    "лий": 5132,
    "авал@@": 5133,
    "Иосафат": 5134,
    "Беф": 5135,
    "ҫӑн@@": 5136,
    "ҫивӗ@@": 5137,
    "шел": 5138,
    "скан@@": 5139,
    "ровна": 5140,
    "пункт": 5141,
    "промышлен@@": 5142,
    "ность": 5143,
    "кров@@": 5144,
    "йӗркес@@": 5145,
    "бое@@": 5146,
    "библиоте@@": 5147,
    "Ри@@": 5148,
    "91": 5149,
    "100": 5150,
    "ӑт@@": 5151,
    "тӗлӗш@@": 5152,
    "требовани@@": 5153,
    "тре": 5154,
    "сет": 5155,
    "разведчи@@": 5156,
    "матери@@": 5157,
    "лем": 5158,
    "конкурс": 5159,
    "кап@@": 5160,
    "Ша@@": 5161,
    "Петров": 5162,
    "Иуди@@": 5163,
    "Ивановна": 5164,
    "Ангел": 5165,
    "Авиме@@": 5166,
    "2008": 5167,
    "№@@": 5168,
    "№": 5169,
    "ҫирӗ@@": 5170,
    "ялан@@": 5171,
    "ьев": 5172,
    "ук": 5173,
    "тӗт@@": 5174,
    "трак@@": 5175,
    "плат@@": 5176,
    "патш@@": 5177,
    "пан": 5178,
    "мел": 5179,
    "ери": 5180,
    "акаде@@": 5181,
    "ай": 5182,
    "Фар@@": 5183,
    "Ор@@": 5184,
    "Манасси@@": 5185,
    "Григорий": 5186,
    "Анге@@": 5187,
    "/@@": 5188,
    "ҫал@@": 5189,
    "Ҫӗ@@": 5190,
    "цион@@": 5191,
    "фана": 5192,
    "ус": 5193,
    "ттӑн": 5194,
    "тин@@": 5195,
    "рий": 5196,
    "лейтенант": 5197,
    "кет@@": 5198,
    "вай": 5199,
    "абза@@": 5200,
    "Симе@@": 5201,
    "Печорин": 5202,
    "Маа@@": 5203,
    "Зе@@": 5204,
    "Дубров@@": 5205,
    "Азария": 5206,
    "82": 5207,
    "74": 5208,
    "59": 5209,
    "2007": 5210,
    "универси@@": 5211,
    "тив": 5212,
    "тете": 5213,
    "тай": 5214,
    "стат@@": 5215,
    "порт@@": 5216,
    "плен@@": 5217,
    "ня": 5218,
    "миллиар@@": 5219,
    "кке@@": 5220,
    "инвали@@": 5221,
    "зер": 5222,
    "жа": 5223,
    "апа@@": 5224,
    "Хар@@": 5225,
    "Саул@@": 5226,
    "Мил@@": 5227,
    "Людмила": 5228,
    "Иванов": 5229,
    "Гра@@": 5230,
    "Гава@@": 5231,
    "Вик@@": 5232,
    "Ана@@": 5233,
    "u@@": 5234,
    "юна@@": 5235,
    "шӑ": 5236,
    "франц@@": 5237,
    "учи@@": 5238,
    "сӑллӑ": 5239,
    "ппи@@": 5240,
    "полож@@": 5241,
    "общество": 5242,
    "нес": 5243,
    "музы@@": 5244,
    "ири": 5245,
    "зал@@": 5246,
    "гимна@@": 5247,
    "бур@@": 5248,
    "Священ@@": 5249,
    "Иоас": 5250,
    "Г": 5251,
    "шкӑр@@": 5252,
    "цер@@": 5253,
    "хас@@": 5254,
    "хава@@": 5255,
    "рок": 5256,
    "регистра@@": 5257,
    "рев@@": 5258,
    "полков@@": 5259,
    "мей@@": 5260,
    "абзац": 5261,
    "Троекуров": 5262,
    "Егоровна": 5263,
    "Гек@@": 5264,
    "Артаксерк@@": 5265,
    "электро@@": 5266,
    "чат@@": 5267,
    "хӗрӗ@@": 5268,
    "тина": 5269,
    "тах@@": 5270,
    "стан": 5271,
    "сор": 5272,
    "совет": 5273,
    "резер@@": 5274,
    "пӗҫ@@": 5275,
    "при": 5276,
    "педаго@@": 5277,
    "нимӗҫ@@": 5278,
    "мов": 5279,
    "мет": 5280,
    "клу@@": 5281,
    "воспи@@": 5282,
    "При@@": 5283,
    "Пот@@": 5284,
    "Лиза": 5285,
    "r@@": 5286,
    "n@@": 5287,
    "85": 5288,
    "63": 5289,
    "тр": 5290,
    "тек@@": 5291,
    "строительство": 5292,
    "сме@@": 5293,
    "ро": 5294,
    "рек@@": 5295,
    "лиц@@": 5296,
    "П": 5297,
    "Зи@@": 5298,
    "Ездра": 5299,
    "Влади@@": 5300,
    "2005": 5301,
    "ӳп@@": 5302,
    "ӑстал@@": 5303,
    "шӗнчи": 5304,
    "учитель": 5305,
    "тя": 5306,
    "техни@@": 5307,
    "талӑк": 5308,
    "стол@@": 5309,
    "сро@@": 5310,
    "синаго@@": 5311,
    "офицер": 5312,
    "око@@": 5313,
    "мӑк@@": 5314,
    "коро@@": 5315,
    "колхоз": 5316,
    "ещ@@": 5317,
    "артиллер@@": 5318,
    "автобу@@": 5319,
    "Яковлев": 5320,
    "Нефф@@": 5321,
    "Лё@@": 5322,
    "Коми@@": 5323,
    "Захария": 5324,
    "Ер@@": 5325,
    "Анюта": 5326,
    "ҫителӗк@@": 5327,
    "шта@@": 5328,
    "чемпи@@": 5329,
    "чан@@": 5330,
    "ска": 5331,
    "сасс@@": 5332,
    "предприниматель@@": 5333,
    "ника": 5334,
    "кри@@": 5335,
    "креди@@": 5336,
    "контрак@@": 5337,
    "кий": 5338,
    "кани@@": 5339,
    "ель": 5340,
    "дан": 5341,
    "ги": 5342,
    "алим": 5343,
    "Хел@@": 5344,
    "Филип@@": 5345,
    "Ур@@": 5346,
    "Сих@@": 5347,
    "Петька": 5348,
    "Олофер@@": 5349,
    "Ники@@": 5350,
    "Констан@@": 5351,
    "Иоаким": 5352,
    "Геде@@": 5353,
    "Авраама": 5354,
    "76": 5355,
    "71": 5356,
    "65": 5357,
    "струк@@": 5358,
    "спектак@@": 5359,
    "пир": 5360,
    "ова": 5361,
    "муниципал@@": 5362,
    "команд@@": 5363,
    "кина": 5364,
    "Полли": 5365,
    "Пав@@": 5366,
    "Ольга": 5367,
    "Иов": 5368,
    "Гар@@": 5369,
    "Вирса@@": 5370,
    "Валаам": 5371,
    "Анна": 5372,
    "69": 5373,
    "учитель@@": 5374,
    "редак@@": 5375,
    "пӗлтерӗш@@": 5376,
    "мара": 5377,
    "малтан@@": 5378,
    "кова": 5379,
    "док@@": 5380,
    "гин@@": 5381,
    "агро@@": 5382,
    "Хе@@": 5383,
    "ФЗ": 5384,
    "Пилат": 5385,
    "Клавдия": 5386,
    "Исаия": 5387,
    "i@@": 5388,
    "75": 5389,
    "66": 5390,
    "199@@": 5391,
    "ӑваш": 5392,
    "фер": 5393,
    "том": 5394,
    "пичч@@": 5395,
    "мун@@": 5396,
    "моф": 5397,
    "комму@@": 5398,
    "иш@@": 5399,
    "дик@@": 5400,
    "вин@@": 5401,
    "Чи@@": 5402,
    "Хан@@": 5403,
    "Седекия": 5404,
    "Михайло@@": 5405,
    "Мардохей": 5406,
    "Каз@@": 5407,
    "Иес@@": 5408,
    "Иереми@@": 5409,
    "Гвоздев": 5410,
    "Ба@@": 5411,
    "Антиох": 5412,
    "s@@": 5413,
    ".».": 5414,
    "ҫып@@": 5415,
    "хов": 5416,
    "фараона": 5417,
    "тытӑм@@": 5418,
    "тера@@": 5419,
    "стр@@": 5420,
    "ора": 5421,
    "неме@@": 5422,
    "коммун@@": 5423,
    "кли@@": 5424,
    "еле": 5425,
    "вз@@": 5426,
    "вела": 5427,
    "бер@@": 5428,
    "Сидо@@": 5429,
    "Саула": 5430,
    "Ру@@": 5431,
    "Рово@@": 5432,
    "Пто@@": 5433,
    "Мересьева": 5434,
    "Кукуш@@": 5435,
    "Егоров": 5436,
    "Глеб": 5437,
    "Галаад@@": 5438,
    "Василиса": 5439,
    "Антио@@": 5440,
    "68": 5441,
    "ӗрен@@": 5442,
    "ӑттӑм": 5443,
    "штаб@@": 5444,
    "чее": 5445,
    "тон": 5446,
    "тахҫан@@": 5447,
    "слав": 5448,
    "сержант": 5449,
    "ром": 5450,
    "род": 5451,
    "площад@@": 5452,
    "ну": 5453,
    "конкурен@@": 5454,
    "искус@@": 5455,
    "зм": 5456,
    "заяв@@": 5457,
    "жан@@": 5458,
    "ел": 5459,
    "док": 5460,
    "дар": 5461,
    "Тэ@@": 5462,
    "Сала@@": 5463,
    "Раҫҫей@@": 5464,
    "Мера@@": 5465,
    "Мел@@": 5466,
    "Кирило@@": 5467,
    "Иосифа": 5468,
    "Ииуй": 5469,
    "Вавилон@@": 5470,
    "Ад@@": 5471,
    "67": 5472,
    "c@@": 5473,
    ",@@": 5474,
    "‚": 5475,
    "«@@": 5476,
    "!@@": 5477,
    "(@@": 5478,
    "e": 5479,
    "…@@": 5480,
    "?@@": 5481,
    "#": 5482,
    "t@@": 5483,
    "s": 5484,
    "l@@": 5485,
    "Т": 5486,
    "ъ@@": 5487,
    "щ": 5488,
    "+": 5489,
    "Д": 5490,
    "¦@@": 5491,
    "¦": 5492,
    "m@@": 5493,
    ";@@": 5494,
    "Ю": 5495,
    "Л": 5496,
    "X@@": 5497,
    ":@@": 5498,
    "Я": 5499,
    "%@@": 5500,
    "У": 5501,
    "r": 5502,
    "h@@": 5503,
    "d@@": 5504,
    "Б": 5505,
    "S@@": 5506,
    "Х": 5507,
    "v@@": 5508,
    "g@@": 5509,
    "p@@": 5510,
    "#@@": 5511,
    "i": 5512,
    "V": 5513,
    "u": 5514,
    "V@@": 5515,
    "З": 5516,
    "t": 5517,
    "b@@": 5518,
    "F@@": 5519,
    "n": 5520,
    "a": 5521,
    "\\": 5522,
    "y@@": 5523,
    "Щ@@": 5524,
    "Й": 5525,
    "p": 5526,
    "k@@": 5527,
    "L@@": 5528,
    "A@@": 5529,
    "*@@": 5530,
    "Ҫ": 5531,
    "Ш": 5532,
    "w@@": 5533,
    "l": 5534,
    "h": 5535,
    "f@@": 5536,
    "\\@@": 5537,
    "X": 5538,
    "d": 5539,
    "T@@": 5540,
    "N@@": 5541,
    "M@@": 5542,
    "D@@": 5543,
    "*": 5544,
    "Ь@@": 5545,
    "Ч": 5546,
    "Ц": 5547,
    "Ж": 5548,
    "R@@": 5549,
    "P@@": 5550,
    "G@@": 5551,
    "E@@": 5552,
    "C@@": 5553,
    "\"@@": 5554,
    "z": 5555,
    "x@@": 5556,
    "g": 5557,
    "W@@": 5558,
    "U@@": 5559,
    "Q@@": 5560,
    "K@@": 5561,
    "D": 5562,
    "-@@": 5563,
    "—@@": 5564,
    "Ӑ": 5565,
    "Ы": 5566,
    "z@@": 5567,
    "w": 5568,
    "j@@": 5569,
    "b": 5570,
    "O@@": 5571,
    "H@@": 5572,
    "@": 5573,
    "&@@": 5574,
    "Ӗ": 5575,
    "ё": 5576,
    "́": 5577,
    "ǎ@@": 5578,
    "°": 5579,
    "y": 5580,
    "x": 5581,
    "q@@": 5582,
    "f": 5583,
    "c": 5584,
    "T": 5585,
    "S": 5586,
    "N": 5587,
    "J@@": 5588,
    "C": 5589,
    "B": 5590,
    "=": 5591,
    "“": 5592,
    "’": 5593,
    "ς@@": 5594,
    "ü@@": 5595,
    "ê@@": 5596,
    "è@@": 5597,
    "è": 5598,
    "à": 5599,
    "×": 5600,
    "­": 5601,
    "¬": 5602,
    "v": 5603,
    "o": 5604,
    "m": 5605,
    "k": 5606,
    "_@@": 5607,
    "Z@@": 5608,
    "Y@@": 5609,
    "U": 5610,
    "R": 5611,
    "P": 5612,
    "A": 5613,
    "\"": 5614
}