{
    "<pad>": 0,
    "<unk>": 1,
    "<s>": 2,
    "</s>": 3,
    ",": 4,
    ".": 5,
    "и": 6,
    "в": 7,
    "не": 8,
    "на": 9,
    ";": 10,
    ":": 11,
    "с": 12,
    "-": 13,
    "что": 14,
    "я": 15,
    "его": 16,
    "И": 17,
    "по@@": 18,
    "к": 19,
    "у": 20,
    "он": 21,
    "—": 22,
    "?": 23,
    "как": 24,
    "из": 25,
    "от": 26,
    "их": 27,
    "а": 28,
    "но": 29,
    "по": 30,
    "у@@": 31,
    "не@@": 32,
    "за@@": 33,
    "то": 34,
    "с@@": 35,
    "о@@": 36,
    "про@@": 37,
    "при@@": 38,
    "за": 39,
    "!": 40,
    "же": 41,
    "в@@": 42,
    "ты": 43,
    "все": 44,
    "вы@@": 45,
    "на@@": 46,
    "о": 47,
    "–": 48,
    "сказал": 49,
    "«": 50,
    "ли": 51,
    "ю": 52,
    "или": 53,
    "т": 54,
    "до@@": 55,
    "они": 56,
    "Я": 57,
    "от@@": 58,
    "со@@": 59,
    "и@@": 60,
    "й": 61,
    "з@@": 62,
    "ки": 63,
    "это": 64,
    "Он": 65,
    "ко@@": 66,
    "для": 67,
    "д@@": 68,
    "ка": 69,
    "ных": 70,
    "но@@": 71,
    "Господь": 72,
    "вы": 73,
    "ро@@": 74,
    "чтобы": 75,
    "е": 76,
    "л": 77,
    "В": 78,
    "ж@@": 79,
    "так": 80,
    "во": 81,
    "ные": 82,
    "С@@": 83,
    "\"": 84,
    "ра@@": 85,
    "да": 86,
    "ный": 87,
    "меня": 88,
    "было": 89,
    "ной": 90,
    "будет": 91,
    "т@@": 92,
    "во@@": 93,
    "ы": 94,
    "я@@": 95,
    "ни": 96,
    "ему": 97,
    "бы": 98,
    "ш@@": 99,
    "м": 100,
    "мы": 101,
    "ч@@": 102,
    "ного": 103,
    "раз@@": 104,
    "ее": 105,
    "мне": 106,
    "до": 107,
    "ли@@": 108,
    "был": 109,
    "б@@": 110,
    "когда": 111,
    "ни@@": 112,
    "мо@@": 113,
    "ное": 114,
    "об@@": 115,
    "ле@@": 116,
    "ным": 117,
    "те": 118,
    "ет": 119,
    "ем": 120,
    "ре@@": 121,
    "н@@": 122,
    "ла": 123,
    "ку": 124,
    "пре@@": 125,
    "А": 126,
    "ви@@": 127,
    "им": 128,
    "…": 129,
    "ибо": 130,
    "чи@@": 131,
    "ка@@": 132,
    "она": 133,
    "ть": 134,
    "ве@@": 135,
    "е@@": 136,
    "них": 137,
    "го@@": 138,
    "се@@": 139,
    "1": 140,
    "ны": 141,
    "к@@": 142,
    "де@@": 143,
    "г@@": 144,
    "него": 145,
    "[": 146,
    "ме@@": 147,
    "м@@": 148,
    "бо@@": 149,
    "из@@": 150,
    "воз@@": 151,
    "ло@@": 152,
    "пере@@": 153,
    "жи@@": 154,
    "А@@": 155,
    "2": 156,
    "тебя": 157,
    "ь": 158,
    "та": 159,
    "под@@": 160,
    "ва": 161,
    "д": 162,
    "ют": 163,
    "си@@": 164,
    "Но": 165,
    "Его": 166,
    "3": 167,
    "ку@@": 168,
    "то@@": 169,
    "ст@@": 170,
    "ти@@": 171,
    "ди@@": 172,
    "н": 173,
    "х@@": 174,
    "О@@": 175,
    "тся": 176,
    "а@@": 177,
    "если": 178,
    "только": 179,
    "вер@@": 180,
    "ко": 181,
    "ва@@": 182,
    "день": 183,
    "По@@": 184,
    "п@@": 185,
    "ду@@": 186,
    "5": 187,
    "р": 188,
    "4": 189,
    "Чувашской": 190,
    "й@@": 191,
    "су@@": 192,
    "кто": 193,
    "время": 194,
    "бе@@": 195,
    "ная": 196,
    "ль@@": 197,
    "ке": 198,
    "тебе": 199,
    "ном": 200,
    "которые": 201,
    "Бог": 202,
    "6": 203,
    "ей": 204,
    "че@@": 205,
    "вот": 206,
    "В@@": 207,
    "са@@": 208,
    "7": 209,
    "ать": 210,
    "дом": 211,
    "па@@": 212,
    "вас": 213,
    "были": 214,
    "том": 215,
    "нет": 216,
    "ился": 217,
    "да@@": 218,
    "ф@@": 219,
    "ми@@": 220,
    "всех": 221,
    ")": 222,
    "того": 223,
    "есть": 224,
    "ную": 225,
    "пи@@": 226,
    "л@@": 227,
    "Республики": 228,
    "вал": 229,
    "Не": 230,
    "те@@": 231,
    "хо@@": 232,
    "вать": 233,
    "9": 234,
    "8": 235,
    "та@@": 236,
    "сти": 237,
    "ри@@": 238,
    "ется": 239,
    "вам": 240,
    "ение": 241,
    "10": 242,
    "пред": 243,
    "ним": 244,
    "еще": 245,
    "Господа": 246,
    "х": 247,
    "ились": 248,
    "ила": 249,
    "нас": 250,
    "г": 251,
    "ну": 252,
    "Ты": 253,
    "№": 254,
    "ения": 255,
    "ча@@": 256,
    "говорит": 257,
    "там": 258,
    "ми": 259,
    "И@@": 260,
    "11": 261,
    "со": 262,
    "У@@": 263,
    "потому": 264,
    "ться": 265,
    "ду": 266,
    "ными": 267,
    "ности": 268,
    "12": 269,
    "щ@@": 270,
    "му": 271,
    "пе@@": 272,
    "ля@@": 273,
    "Е@@": 274,
    "сто@@": 275,
    "сь": 276,
    "ма": 277,
    "(": 278,
    "шь": 279,
    "ен@@": 280,
    "али": 281,
    "сын": 282,
    "ше@@": 283,
    "ского": 284,
    "будут": 285,
    "который": 286,
    "уже": 287,
    "сть": 288,
    "ша@@": 289,
    "»": 290,
    "кой": 291,
    "рас@@": 292,
    "над": 293,
    "народ": 294,
    "мой": 295,
    "ю@@": 296,
    "р@@": 297,
    "нам": 298,
    "13": 299,
    "быть": 300,
    "ши@@": 301,
    "ки@@": 302,
    "сти@@": 303,
    "ла@@": 304,
    "ство": 305,
    "лет": 306,
    "са": 307,
    "15": 308,
    "себя": 309,
    "ру@@": 310,
    "ма@@": 311,
    "На@@": 312,
    "14": 313,
    "ней": 314,
    "ан@@": 315,
    "ня@@": 316,
    "ло": 317,
    "Д@@": 318,
    "ков": 319,
    "го": 320,
    "га@@": 321,
    "ком": 322,
    "вали": 323,
    "це@@": 324,
    "человек": 325,
    "пред@@": 326,
    "ства": 327,
    "при": 328,
    "слова": 329,
    "года": 330,
    "ву": 331,
    "ы@@": 332,
    "нее": 333,
    "]": 334,
    "би@@": 335,
    "».": 336,
    "была": 337,
    "пол@@": 338,
    "16": 339,
    "ль": 340,
    "Когда": 341,
    "вая": 342,
    "ь@@": 343,
    "ала": 344,
    "17": 345,
    "му@@": 346,
    "20": 347,
    "ну@@": 348,
    "ник": 349,
    "дал": 350,
    "чем": 351,
    "ский": 352,
    "же@@": 353,
    "один": 354,
    "ар@@": 355,
    "тот": 356,
    "где": 357,
    "под": 358,
    "Если": 359,
    "дома": 360,
    "пу@@": 361,
    "ды": 362,
    "пер@@": 363,
    "18": 364,
    "руки": 365,
    "Бога": 366,
    "ются": 367,
    "ания": 368,
    "своего": 369,
    "жа@@": 370,
    "Т@@": 371,
    "царь": 372,
    "себе": 373,
    "против": 374,
    "ди": 375,
    "П@@": 376,
    "га": 377,
    "ся": 378,
    "На": 379,
    "бы@@": 380,
    "землю": 381,
    "Г@@": 382,
    "ание": 383,
    "ря@@": 384,
    "земле": 385,
    "ра": 386,
    "19": 387,
    "з": 388,
    "ин@@": 389,
    "вой": 390,
    "ав@@": 391,
    "земли": 392,
    "ность": 393,
    "всем": 394,
    "очень": 395,
    "ер@@": 396,
    "21": 397,
    "ления": 398,
    "ту@@": 399,
    "ско@@": 400,
    "ских": 401,
    "своих": 402,
    "цы": 403,
    "ешь": 404,
    "ской": 405,
    "К@@": 406,
    "нем": 407,
    "тов": 408,
    "ил": 409,
    "ста@@": 410,
    "может": 411,
    "благо@@": 412,
    "Вот": 413,
    "ту": 414,
    "Это": 415,
    "раз": 416,
    "ью": 417,
    "ги@@": 418,
    "М@@": 419,
    "»,": 420,
    "тя@@": 421,
    "без": 422,
    "ом": 423,
    "зо@@": 424,
    "ья": 425,
    "стра@@": 426,
    "мен@@": 427,
    "пла@@": 428,
    "ников": 429,
    "между": 430,
    "ление": 431,
    "22": 432,
    "ении": 433,
    "ники": 434,
    "сынов": 435,
    "ца": 436,
    "вос@@": 437,
    "стро@@": 438,
    "вели@@": 439,
    "Как": 440,
    "свою": 441,
    "Они": 442,
    "много": 443,
    "ях": 444,
    "хи@@": 445,
    "этого": 446,
    "вра@@": 447,
    "ры@@": 448,
    "после": 449,
    "сло@@": 450,
    "чер@@": 451,
    "23": 452,
    "лись": 453,
    "ними": 454,
    "царя": 455,
    "йте": 456,
    "Ибо": 457,
    "сына": 458,
    "свои": 459,
    "ба@@": 460,
    "пло@@": 461,
    "даже": 462,
    "ё@@": 463,
    "ции": 464,
    "жен@@": 465,
    "Да": 466,
    "ался": 467,
    "гу@@": 468,
    "стал": 469,
    "зи@@": 470,
    "тель@@": 471,
    "своей": 472,
    "лен@@": 473,
    "ги": 474,
    "ат@@": 475,
    "три": 476,
    "тру@@": 477,
    "ению": 478,
    "ев": 479,
    "ками": 480,
    "ах": 481,
    "тогда": 482,
    "сердце": 483,
    "кого": 484,
    "ями": 485,
    "ен": 486,
    "Со@@": 487,
    "илась": 488,
    "ил@@": 489,
    "24": 490,
    "25": 491,
    "слово": 492,
    "теперь": 493,
    "чу@@": 494,
    "ц@@": 495,
    "гра@@": 496,
    "народа": 497,
    "Господу": 498,
    "Что": 499,
    "ника": 500,
    "С": 501,
    "году": 502,
    "этот": 503,
    "чен@@": 504,
    "де": 505,
    "ском": 506,
    "сделал": 507,
    "Так": 508,
    "человека": 509,
    "цар@@": 510,
    "имя": 511,
    "ес@@": 512,
    "Тогда": 513,
    "этом": 514,
    "щи@@": 515,
    "ари@@": 516,
    "зна@@": 517,
    "бу@@": 518,
    "более": 519,
    "аль@@": 520,
    "ением": 521,
    "сла@@": 522,
    "лю": 523,
    "ля": 524,
    "ал@@": 525,
    "ве": 526,
    "больше": 527,
    "ды@@": 528,
    "слу@@": 529,
    "пра@@": 530,
    "При@@": 531,
    "дать": 532,
    "вых": 533,
    "ались": 534,
    "вает": 535,
    "б": 536,
    "нул": 537,
    "ющий": 538,
    "говорил": 539,
    "пусть": 540,
    "пар@@": 541,
    "ничего": 542,
    "два": 543,
    "перед": 544,
    "жизни": 545,
    "сы@@": 546,
    "ска@@": 547,
    "ному": 548,
    "ясь": 549,
    "дня": 550,
    "ста": 551,
    "дела": 552,
    "кон@@": 553,
    "надо": 554,
    "дней": 555,
    "Не@@": 556,
    "Иисус": 557,
    "дни": 558,
    "чего": 559,
    "свя@@": 560,
    "вым": 561,
    "жить": 562,
    "сту@@": 563,
    "города": 564,
    "О": 565,
    "ям": 566,
    "ха@@": 567,
    "нами": 568,
    "стар@@": 569,
    "26": 570,
    "ам": 571,
    "твой": 572,
    "сле@@": 573,
    "Си@@": 574,
    "Н@@": 575,
    "27": 576,
    "э@@": 577,
    "ские": 578,
    "лся": 579,
    "У": 580,
    "Про@@": 581,
    "Господи": 582,
    "Меня": 583,
    "Ка@@": 584,
    "ье": 585,
    "ле": 586,
    "ща@@": 587,
    "ц": 588,
    "стре@@": 589,
    "место": 590,
    "весь": 591,
    "ете": 592,
    "З@@": 593,
    "тра@@": 594,
    "ме": 595,
    "лу@@": 596,
    "бро@@": 597,
    "пове@@": 598,
    "ур@@": 599,
    "сте@@": 600,
    "ак@@": 601,
    "сам": 602,
    "тро@@": 603,
    "людей": 604,
    "детей": 605,
    "ов": 606,
    "аться": 607,
    "Она": 608,
    "Б@@": 609,
    "ре": 610,
    "об": 611,
    "зло@@": 612,
    "ений": 613,
    "чи": 614,
    "той": 615,
    "твоего": 616,
    "род@@": 617,
    "всегда": 618,
    "через": 619,
    "\",": 620,
    "боль@@": 621,
    "щий": 622,
    "тем": 623,
    "вет@@": 624,
    "Том": 625,
    "отве@@": 626,
    "доб@@": 627,
    "кор@@": 628,
    "тер@@": 629,
    "гро@@": 630,
    "буду": 631,
    "30": 632,
    "28": 633,
    "ти": 634,
    "сме@@": 635,
    "гла@@": 636,
    "всего": 637,
    "дно": 638,
    "кий": 639,
    "вшись": 640,
    "Х@@": 641,
    "обра@@": 642,
    "ван@@": 643,
    "мы@@": 644,
    "пришел": 645,
    "дам": 646,
    "также": 647,
    "год": 648,
    "вые": 649,
    "кие": 650,
    "потом": 651,
    "сказали": 652,
    "ир@@": 653,
    "высо@@": 654,
    "вала": 655,
    "рав@@": 656,
    "Мы": 657,
    "откры@@": 658,
    "Ко@@": 659,
    "отца": 660,
    "которых": 661,
    "По": 662,
    "Го@@": 663,
    "обе@@": 664,
    "тель": 665,
    "ющих": 666,
    "дело": 667,
    "29": 668,
    "мои": 669,
    "Все": 670,
    "Алексей": 671,
    "стоя@@": 672,
    "вз@@": 673,
    "твои": 674,
    "которое": 675,
    "тесь": 676,
    "али@@": 677,
    "своим": 678,
    "ний": 679,
    "доро@@": 680,
    "ще": 681,
    "каждый": 682,
    "рен@@": 683,
    "дей@@": 684,
    "вместе": 685,
    "свое": 686,
    "Л@@": 687,
    "взял": 688,
    "нибудь": 689,
    "дан@@": 690,
    "Ф@@": 691,
    "бра@@": 692,
    "или@@": 693,
    "здесь": 694,
    "жд@@": 695,
    "вами": 696,
    "вался": 697,
    "Мо@@": 698,
    "шел": 699,
    "Р@@": 700,
    "ж": 701,
    "бед@@": 702,
    "ани@@": 703,
    "свой": 704,
    "ходит": 705,
    "Ну": 706,
    "ша": 707,
    "лет@@": 708,
    "город": 709,
    "голо@@": 710,
    "стали": 711,
    "пошел": 712,
    "обо@@": 713,
    "сказала": 714,
    "нему": 715,
    "люди": 716,
    "ис@@": 717,
    "вый": 718,
    "говорить": 719,
    "ха": 720,
    "учи@@": 721,
    "сты@@": 722,
    "ках": 723,
    "глаза": 724,
    "сего": 725,
    "Мне": 726,
    "руку": 727,
    "посе@@": 728,
    "можно": 729,
    "мое": 730,
    "жизнь": 731,
    "дя@@": 732,
    "Ио@@": 733,
    "Ему": 734,
    "став@@": 735,
    "сей": 736,
    "заме@@": 737,
    "мер@@": 738,
    "бес@@": 739,
    "гу": 740,
    "алась": 741,
    "пы@@": 742,
    "ние": 743,
    "ваться": 744,
    "тан@@": 745,
    "илось": 746,
    "без@@": 747,
    "Ш@@": 748,
    "лож@@": 749,
    "кая": 750,
    "дов": 751,
    "чу": 752,
    "ня": 753,
    "нов@@": 754,
    "испол@@": 755,
    "дите": 756,
    "ню": 757,
    "остав@@": 758,
    "вен@@": 759,
    "вого": 760,
    "лю@@": 761,
    "кра@@": 762,
    "ством": 763,
    "ци@@": 764,
    "име@@": 765,
    "говоря": 766,
    "31": 767,
    "мол@@": 768,
    "дет": 769,
    "другой": 770,
    "шен@@": 771,
    "Са@@": 772,
    "ты@@": 773,
    "ании": 774,
    "моего": 775,
    "Во@@": 776,
    "гру@@": 777,
    "гор@@": 778,
    "уч@@": 779,
    "сказать": 780,
    "ров@@": 781,
    "ок": 782,
    "вар@@": 783,
    "ще@@": 784,
    "стан@@": 785,
    "хорошо": 786,
    "фи@@": 787,
    "спа@@": 788,
    "одного": 789,
    "тил": 790,
    "кро@@": 791,
    "среди": 792,
    "ру": 793,
    "шу@@": 794,
    "Израиля": 795,
    "мя@@": 796,
    "друг": 797,
    "сем@@": 798,
    "дут": 799,
    "За@@": 800,
    "тоже": 801,
    "ило@@": 802,
    "ран@@": 803,
    "ем@@": 804,
    "ься": 805,
    "цев": 806,
    "хоро@@": 807,
    "эти": 808,
    "тысяч": 809,
    "1@@": 810,
    "вол@@": 811,
    "встре@@": 812,
    "сер@@": 813,
    "ор@@": 814,
    "ами": 815,
    "алось": 816,
    "спо@@": 817,
    "ною": 818,
    "которого": 819,
    "словами": 820,
    "ана": 821,
    "щие": 822,
    "кри@@": 823,
    "доме": 824,
    "Давид": 825,
    "ходил": 826,
    "ская": 827,
    "кан@@": 828,
    "От@@": 829,
    "части": 830,
    "дел@@": 831,
    "ры": 832,
    "пос@@": 833,
    "наде@@": 834,
    "тен@@": 835,
    "поло@@": 836,
    "пле@@": 837,
    "отвечал": 838,
    "зат@@": 839,
    "дро@@": 840,
    "видел": 841,
    "поко@@": 842,
    "ющие": 843,
    "ск@@": 844,
    "никто": 845,
    "ких": 846,
    "ени@@": 847,
    "фо@@": 848,
    "твоих": 849,
    "жда@@": 850,
    "ваши": 851,
    "стве": 852,
    "све@@": 853,
    "ким": 854,
    "Кто": 855,
    "зн@@": 856,
    "ших": 857,
    "помо@@": 858,
    "ею": 859,
    "щих": 860,
    "сто": 861,
    "пять": 862,
    "плат@@": 863,
    "мал@@": 864,
    "сейчас": 865,
    "побе@@": 866,
    "ой": 867,
    "ба": 868,
    "ши": 869,
    "каз@@": 870,
    "вил": 871,
    "ча": 872,
    "жу": 873,
    "дела@@": 874,
    "\".": 875,
    "дя": 876,
    "ныне": 877,
    "ез@@": 878,
    "тат@@": 879,
    "статьи": 880,
    "правед@@": 881,
    "будешь": 882,
    "...": 883,
    "зако@@": 884,
    "дали": 885,
    "вший": 886,
    "нен@@": 887,
    "моя": 888,
    "нить": 889,
    "произ@@": 890,
    "Ра@@": 891,
    "чно": 892,
    "ству@@": 893,
    "опять": 894,
    "тут": 895,
    "сыны": 896,
    "месте": 897,
    "пя@@": 898,
    "ходить": 899,
    "тре@@": 900,
    "кры@@": 901,
    "ху@@": 902,
    "ст": 903,
    "гре@@": 904,
    "тый": 905,
    "ден@@": 906,
    "вой@@": 907,
    "чь": 908,
    "сил": 909,
    "бере@@": 910,
    "сить": 911,
    "оде@@": 912,
    "нов": 913,
    "которую": 914,
    "вом": 915,
    "Богу": 916,
    "стью": 917,
    "мог": 918,
    "шли": 919,
    "пришли": 920,
    "йся": 921,
    "послал": 922,
    "обла@@": 923,
    "ке@@": 924,
    "вя@@": 925,
    "32": 926,
    "жил": 927,
    "делать": 928,
    "дает": 929,
    "подо@@": 930,
    "нач@@": 931,
    "вед@@": 932,
    "Ми@@": 933,
    "прино@@": 934,
    "кам": 935,
    "ет@@": 936,
    "ум@@": 937,
    "телей": 938,
    "должен": 939,
    "дер@@": 940,
    "ало@@": 941,
    "началь@@": 942,
    "воро@@": 943,
    "юсь": 944,
    "ый": 945,
    "тельно": 946,
    "ило": 947,
    "вую": 948,
    "аро@@": 949,
    "То@@": 950,
    "ус@@": 951,
    "дел": 952,
    "19@@": 953,
    "тех": 954,
    "ским": 955,
    "прежде": 956,
    "После": 957,
    "царю": 958,
    "ере@@": 959,
    "полу@@": 960,
    "щего": 961,
    "тели": 962,
    "дил": 963,
    "знаю": 964,
    "времени": 965,
    "зе@@": 966,
    "шка": 967,
    "ост@@": 968,
    "дви@@": 969,
    "своими": 970,
    "тобою": 971,
    "работ@@": 972,
    "8@@": 973,
    "щения": 974,
    "фе@@": 975,
    "смерти": 976,
    "пить": 977,
    "пал@@": 978,
    "зы@@": 979,
    "сыновей": 980,
    "се": 981,
    "ща": 982,
    "несколько": 983,
    "голову": 984,
    "Итак": 985,
    "три@@": 986,
    "рублей": 987,
    "лом": 988,
    "земля": 989,
    "Федерации": 990,
    "горо@@": 991,
    "этой": 992,
    "нашего": 993,
    "ят": 994,
    "пой@@": 995,
    "зан@@": 996,
    "теля": 997,
    "нужно": 998,
    "ас@@": 999,
    "Российской": 1000,
    "33": 1001,
    "ствие": 1002,
    "сов": 1003,
    "пом@@": 1004,
    "нулся": 1005,
    "вают": 1006,
    "люби@@": 1007,
    "фа@@": 1008,
    "ф": 1009,
    "какой": 1010,
    "К": 1011,
    "Га@@": 1012,
    "Моисей": 1013,
    "моло@@": 1014,
    "жно": 1015,
    "чтоб": 1016,
    "чки": 1017,
    "лице": 1018,
    "участ@@": 1019,
    "служ@@": 1020,
    "пис@@": 1021,
    "тол@@": 1022,
    "совер@@": 1023,
    "смо@@": 1024,
    "од@@": 1025,
    "Э@@": 1026,
    "ство@@": 1027,
    "лица": 1028,
    "ват@@": 1029,
    "хотя": 1030,
    "наши": 1031,
    "лась": 1032,
    "тому": 1033,
    "шие": 1034,
    "увидел": 1035,
    "семь": 1036,
    "гото@@": 1037,
    "води@@": 1038,
    "дят": 1039,
    "хра@@": 1040,
    "лу": 1041,
    "За": 1042,
    "тами": 1043,
    "сен@@": 1044,
    "сами": 1045,
    "кла@@": 1046,
    "воды": 1047,
    "цен@@": 1048,
    "ступ@@": 1049,
    "моей": 1050,
    "эту": 1051,
    "которая": 1052,
    "ствен@@": 1053,
    "подня@@": 1054,
    "печ@@": 1055,
    "оби@@": 1056,
    "мною": 1057,
    "дь": 1058,
    "вре@@": 1059,
    "ху": 1060,
    "ром": 1061,
    "куда": 1062,
    "Сво@@": 1063,
    "слов": 1064,
    "лы": 1065,
    "вались": 1066,
    "бе": 1067,
    "шу": 1068,
    "ге": 1069,
    "Се@@": 1070,
    "Ли@@": 1071,
    "ния": 1072,
    "зу@@": 1073,
    "говорили": 1074,
    "вся@@": 1075,
    "вания": 1076,
    "скую": 1077,
    "стран@@": 1078,
    "своему": 1079,
    "ов@@": 1080,
    "голос": 1081,
    "Ваня": 1082,
    "Ан@@": 1083,
    "сегодня": 1084,
    "своем": 1085,
    "Ма@@": 1086,
    "Бе@@": 1087,
    "ший": 1088,
    "уго@@": 1089,
    "должно": 1090,
    "гне@@": 1091,
    "Тебя": 1092,
    "ски@@": 1093,
    "кую": 1094,
    "кое": 1095,
    "вое": 1096,
    "Израилевых": 1097,
    "тор@@": 1098,
    "тво@@": 1099,
    "кру@@": 1100,
    "Ж@@": 1101,
    "ское": 1102,
    "отец": 1103,
    "ноги": 1104,
    "двадцать": 1105,
    "До@@": 1106,
    "тых": 1107,
    "сни@@": 1108,
    "рабо@@": 1109,
    "нии": 1110,
    "ого": 1111,
    "места": 1112,
    "фор@@": 1113,
    "покры@@": 1114,
    "им@@": 1115,
    "вшие": 1116,
    "вал@@": 1117,
    "чуваш@@": 1118,
    "ч": 1119,
    "ков@@": 1120,
    "жал@@": 1121,
    "твое": 1122,
    "спи@@": 1123,
    "вла@@": 1124,
    "34": 1125,
    "шло": 1126,
    "над@@": 1127,
    "иль@@": 1128,
    "вод@@": 1129,
    "хват@@": 1130,
    "показ@@": 1131,
    "35": 1132,
    "пря@@": 1133,
    "двух": 1134,
    "вышел": 1135,
    "Ва@@": 1136,
    "стен@@": 1137,
    "най@@": 1138,
    "ить": 1139,
    "Ме@@": 1140,
    "твоей": 1141,
    "ман@@": 1142,
    "должны": 1143,
    "сы": 1144,
    "лен": 1145,
    "жи": 1146,
    "ало": 1147,
    "ате@@": 1148,
    "ше": 1149,
    "повер@@": 1150,
    "мом": 1151,
    "сыновья": 1152,
    "сель@@": 1153,
    "знает": 1154,
    "жен": 1155,
    "гля@@": 1156,
    "Мой": 1157,
    "Вы": 1158,
    "мо": 1159,
    "лый": 1160,
    "слыш@@": 1161,
    "Нет": 1162,
    "радо@@": 1163,
    "работы": 1164,
    "ос@@": 1165,
    "возвра@@": 1166,
    "ров": 1167,
    "путь": 1168,
    "пути": 1169,
    "полож@@": 1170,
    "вел": 1171,
    "ай@@": 1172,
    "сколько": 1173,
    "лил": 1174,
    "нил": 1175,
    "начала": 1176,
    "тить": 1177,
    "пуст@@": 1178,
    "поро@@": 1179,
    "лучше": 1180,
    "фа": 1181,
    "ствовать": 1182,
    "пали": 1183,
    "нуть": 1184,
    "кому": 1185,
    "бу": 1186,
    "скому": 1187,
    "ожи@@": 1188,
    "Я@@": 1189,
    "скажи": 1190,
    "знал": 1191,
    "городе": 1192,
    ".@@": 1193,
    "чув@@": 1194,
    "расс@@": 1195,
    "дай": 1196,
    "все@@": 1197,
    "атель@@": 1198,
    "сом": 1199,
    "много@@": 1200,
    "восто@@": 1201,
    "Из": 1202,
    "шки": 1203,
    "чения": 1204,
    "силь@@": 1205,
    "народу": 1206,
    "других": 1207,
    "такой": 1208,
    "оно": 1209,
    "мая": 1210,
    "шла": 1211,
    "ствия": 1212,
    "свер@@": 1213,
    "пошли": 1214,
    "сил@@": 1215,
    "мир": 1216,
    "имени": 1217,
    "выми": 1218,
    "пят@@": 1219,
    "п": 1220,
    "душа": 1221,
    "Ие@@": 1222,
    "щен@@": 1223,
    "часть": 1224,
    "уж": 1225,
    "стер@@": 1226,
    "будто": 1227,
    "],": 1228,
    "Ре@@": 1229,
    "Ни@@": 1230,
    "ьте": 1231,
    "шей": 1232,
    "ходили": 1233,
    "бла@@": 1234,
    "празд@@": 1235,
    "говорят": 1236,
    "Господом": 1237,
    "шее": 1238,
    "чил": 1239,
    "вить": 1240,
    "сс@@": 1241,
    "мся": 1242,
    "мать": 1243,
    "люб@@": 1244,
    "вести": 1245,
    "Чувашии": 1246,
    "Хо@@": 1247,
    "Только": 1248,
    "Иисуса": 1249,
    "Иерусалим": 1250,
    "шил": 1251,
    "стара@@": 1252,
    "сии": 1253,
    "рес@@": 1254,
    "мыс@@": 1255,
    "мир@@": 1256,
    "ева": 1257,
    "дит": 1258,
    ").": 1259,
    "кар@@": 1260,
    "жертву": 1261,
    "дар@@": 1262,
    "ъ@@": 1263,
    "стало": 1264,
    "долго": 1265,
    "говорю": 1266,
    "вается": 1267,
    "»;": 1268,
    "ющего": 1269,
    "рах": 1270,
    "Та@@": 1271,
    "ш": 1272,
    "торо@@": 1273,
    "сюда": 1274,
    "мест@@": 1275,
    "мало": 1276,
    "Иса@@": 1277,
    "ье@@": 1278,
    "ими": 1279,
    "Ви@@": 1280,
    "хи": 1281,
    "уча@@": 1282,
    "поставил": 1283,
    "лег@@": 1284,
    "ходя@@": 1285,
    "уби@@": 1286,
    "отвер@@": 1287,
    "лан@@": 1288,
    "ком@@": 1289,
    "зем@@": 1290,
    "дети": 1291,
    "город@@": 1292,
    "всё": 1293,
    "ваших": 1294,
    "цу": 1295,
    "ход@@": 1296,
    "ником": 1297,
    "никогда": 1298,
    "нечи@@": 1299,
    "две": 1300,
    "всей": 1301,
    "Де@@": 1302,
    "ри": 1303,
    "он@@": 1304,
    "моих": 1305,
    "деся@@": 1306,
    "Потом": 1307,
    "ходят": 1308,
    "теле@@": 1309,
    "тар@@": 1310,
    "одной": 1311,
    "мою": 1312,
    "зд@@": 1313,
    "закона": 1314,
    "тор": 1315,
    "заменить": 1316,
    "жены": 1317,
    "души": 1318,
    "ян@@": 1319,
    "чка": 1320,
    "умер@@": 1321,
    "наших": 1322,
    "кре@@": 1323,
    "добро@@": 1324,
    "щение": 1325,
    "грех": 1326,
    "Ч@@": 1327,
    "поя@@": 1328,
    "наш": 1329,
    "лены": 1330,
    "вне@@": 1331,
    "ьями": 1332,
    "щим": 1333,
    "сие": 1334,
    "креп@@": 1335,
    "бле@@": 1336,
    "стороны": 1337,
    "ству": 1338,
    "мат@@": 1339,
    "дия": 1340,
    "глазами": 1341,
    "яв@@": 1342,
    "ых": 1343,
    "тые": 1344,
    "ся@@": 1345,
    "первый": 1346,
    "ву@@": 1347,
    "воен@@": 1348,
    "тно": 1349,
    "пока@@": 1350,
    "около": 1351,
    "друга": 1352,
    "всю": 1353,
    "хотел": 1354,
    "сили": 1355,
    "сво@@": 1356,
    "доколе": 1357,
    "пал": 1358,
    "кроме": 1359,
    "ещё": 1360,
    "вну@@": 1361,
    "шед@@": 1362,
    "успе@@": 1363,
    "убе@@": 1364,
    "твою": 1365,
    "пти@@": 1366,
    "мило@@": 1367,
    "мед@@": 1368,
    "вид@@": 1369,
    "вдруг": 1370,
    "Для": 1371,
    "лов": 1372,
    "кою": 1373,
    "боле@@": 1374,
    "ального": 1375,
    "тах": 1376,
    "дочь": 1377,
    "Господня": 1378,
    "ут@@": 1379,
    "си": 1380,
    "це": 1381,
    "че": 1382,
    "туда": 1383,
    "сит": 1384,
    "вших": 1385,
    "вание": 1386,
    "Но@@": 1387,
    "36": 1388,
    "чный": 1389,
    "ступа@@": 1390,
    "сердца": 1391,
    "роди@@": 1392,
    "шения": 1393,
    "ро": 1394,
    "поле": 1395,
    "кими": 1396,
    "кат@@": 1397,
    "дабы": 1398,
    "вля@@": 1399,
    "щу": 1400,
    "твор@@": 1401,
    "ото@@": 1402,
    "ведь": 1403,
    "цион@@": 1404,
    "спросил": 1405,
    "одна": 1406,
    "которой": 1407,
    "коло@@": 1408,
    "ец": 1409,
    "глу@@": 1410,
    "ун@@": 1411,
    "следо@@": 1412,
    "прине@@": 1413,
    "окру@@": 1414,
    "умер": 1415,
    "народов": 1416,
    "Боже": 1417,
    "золо@@": 1418,
    "дополнить": 1419,
    "всякий": 1420,
    "Ели@@": 1421,
    "40": 1422,
    "огонь": 1423,
    "кал@@": 1424,
    "бре@@": 1425,
    "начал": 1426,
    "жит": 1427,
    "образ@@": 1428,
    "слы@@": 1429,
    "сделать": 1430,
    "зар@@": 1431,
    "душу": 1432,
    "горе": 1433,
    "Иерусалиме": 1434,
    "су": 1435,
    "сразу": 1436,
    "снова": 1437,
    "пока": 1438,
    "ору@@": 1439,
    "нежели": 1440,
    "закон": 1441,
    "согла@@": 1442,
    "пес@@": 1443,
    "ночь": 1444,
    "ницы": 1445,
    "кровь": 1446,
    "крас@@": 1447,
    "дах": 1448,
    "От": 1449,
    "шего": 1450,
    "силу": 1451,
    "пусты@@": 1452,
    "напол@@": 1453,
    "лицем": 1454,
    "дво@@": 1455,
    "коле@@": 1456,
    "даст": 1457,
    "вало": 1458,
    "Господень": 1459,
    "Ар@@": 1460,
    "чение": 1461,
    "нечести@@": 1462,
    "жал": 1463,
    "другие": 1464,
    "стат@@": 1465,
    "само@@": 1466,
    "малень@@": 1467,
    "держ@@": 1468,
    "большой": 1469,
    "тал": 1470,
    "собра@@": 1471,
    "кур@@": 1472,
    "дума@@": 1473,
    "скры@@": 1474,
    "священник": 1475,
    "республики": 1476,
    "назад": 1477,
    "истреб@@": 1478,
    "взгля@@": 1479,
    "ческого": 1480,
    "сдела@@": 1481,
    "ины": 1482,
    "дами": 1483,
    "вокруг": 1484,
    "вай": 1485,
    "Бо@@": 1486,
    "цию": 1487,
    "сторону": 1488,
    "нять": 1489,
    "ны@@": 1490,
    "народы": 1491,
    "мар@@": 1492,
    "защи@@": 1493,
    "жили": 1494,
    "ге@@": 1495,
    "шение": 1496,
    "устро@@": 1497,
    "сты": 1498,
    "ину": 1499,
    "избира@@": 1500,
    "держи@@": 1501,
    "Свя@@": 1502,
    "ым": 1503,
    "стала": 1504,
    "поз@@": 1505,
    "нару@@": 1506,
    "Моисею": 1507,
    "страш@@": 1508,
    "свобо@@": 1509,
    "рать": 1510,
    "обре@@": 1511,
    "будете": 1512,
    "Иудей@@": 1513,
    "священ@@": 1514,
    "лось": 1515,
    "жена": 1516,
    "жела@@": 1517,
    "дешь": 1518,
    "Ве@@": 1519,
    "четыре": 1520,
    "пил": 1521,
    "нею": 1522,
    "кло@@": 1523,
    "Ро@@": 1524,
    "уви@@": 1525,
    "работу": 1526,
    "глав@@": 1527,
    "Ц@@": 1528,
    "следу@@": 1529,
    "одно": 1530,
    "кля@@": 1531,
    "вле@@": 1532,
    "ья@@": 1533,
    "приня@@": 1534,
    "луч@@": 1535,
    "идти": 1536,
    "зыва@@": 1537,
    "дить": 1538,
    "Божи@@": 1539,
    "ющим": 1540,
    "утвер@@": 1541,
    "тие": 1542,
    "тай@@": 1543,
    "суд": 1544,
    "совсем": 1545,
    "сове@@": 1546,
    "реш@@": 1547,
    "па": 1548,
    "леж@@": 1549,
    "ые": 1550,
    "тем@@": 1551,
    "месяца": 1552,
    "Вы@@": 1553,
    "38": 1554,
    "37": 1555,
    "ски": 1556,
    "сила": 1557,
    "ненави@@": 1558,
    "матери": 1559,
    "лении": 1560,
    "гом": 1561,
    "вели": 1562,
    "мя": 1563,
    "каж@@": 1564,
    "дей": 1565,
    "гн@@": 1566,
    "района": 1567,
    "9@@": 1568,
    "ть@@": 1569,
    "тия": 1570,
    "поч@@": 1571,
    "мыш@@": 1572,
    "мужчи@@": 1573,
    "которым": 1574,
    "такое": 1575,
    "нь": 1576,
    "ницу": 1577,
    "нашей": 1578,
    "вин@@": 1579,
    "Теперь": 1580,
    "Вер@@": 1581,
    "!»": 1582,
    "щей": 1583,
    "уд@@": 1584,
    "прият@@": 1585,
    "зер@@": 1586,
    "дет@@": 1587,
    "брат@@": 1588,
    "язык": 1589,
    "шит": 1590,
    "твер@@": 1591,
    "нула": 1592,
    "никами": 1593,
    "знать": 1594,
    "забо@@": 1595,
    "узна@@": 1596,
    "основ@@": 1597,
    "будем": 1598,
    "стоит": 1599,
    "разви@@": 1600,
    "гово@@": 1601,
    "ара": 1602,
    "упо@@": 1603,
    "сем": 1604,
    "сел": 1605,
    "пен@@": 1606,
    "обще@@": 1607,
    "бли@@": 1608,
    "хозяй@@": 1609,
    "рам": 1610,
    "весе@@": 1611,
    "хов": 1612,
    "ставля@@": 1613,
    "сок": 1614,
    "прави@@": 1615,
    "пож@@": 1616,
    "многие": 1617,
    "краси@@": 1618,
    "буду@@": 1619,
    "твоя": 1620,
    "ставить": 1621,
    "мор@@": 1622,
    "вместо": 1623,
    "ваш": 1624,
    "сно@@": 1625,
    "работать": 1626,
    "знали": 1627,
    "жителей": 1628,
    "всеми": 1629,
    "аний": 1630,
    "цов": 1631,
    "услышал": 1632,
    "обы@@": 1633,
    "могут": 1634,
    "мно@@": 1635,
    "кам@@": 1636,
    "жали": 1637,
    "дой": 1638,
    "стано@@": 1639,
    "раду@@": 1640,
    "Су@@": 1641,
    "Из@@": 1642,
    "].": 1643,
    "соз@@": 1644,
    "поня@@": 1645,
    "Ку@@": 1646,
    "Богом": 1647,
    "разум@@": 1648,
    "истреби@@": 1649,
    "заклю@@": 1650,
    "дух": 1651,
    "дол@@": 1652,
    "делал": 1653,
    "боя@@": 1654,
    "),": 1655,
    "ял": 1656,
    "чей": 1657,
    "хом": 1658,
    "сынам": 1659,
    "скоро": 1660,
    "ради": 1661,
    "ит": 1662,
    "Мар@@": 1663,
    "яз@@": 1664,
    "щи": 1665,
    "собою": 1666,
    "раст@@": 1667,
    "йтесь": 1668,
    "ия": 1669,
    "жив": 1670,
    "десять": 1671,
    "эта": 1672,
    "шую": 1673,
    "нало@@": 1674,
    "горы": 1675,
    "брат": 1676,
    "Твоего": 1677,
    "ут": 1678,
    "ница": 1679,
    "ниц@@": 1680,
    "нах": 1681,
    "испо@@": 1682,
    "веч@@": 1683,
    "Во": 1684,
    "твоим": 1685,
    "право@@": 1686,
    "Давида": 1687,
    "явля@@": 1688,
    "ходи@@": 1689,
    "прово@@": 1690,
    "мн@@": 1691,
    "зави@@": 1692,
    "давно": 1693,
    "Мересьев": 1694,
    "этих": 1695,
    "хлеб": 1696,
    "расска@@": 1697,
    "назна@@": 1698,
    "идет": 1699,
    "заве@@": 1700,
    "богат@@": 1701,
    "Тебе": 1702,
    "Израиль@@": 1703,
    "шему": 1704,
    "стоял": 1705,
    "согре@@": 1706,
    "посту@@": 1707,
    "лению": 1708,
    "бер@@": 1709,
    "ам@@": 1710,
    "Израилевы": 1711,
    "?»": 1712,
    "чик": 1713,
    "ция": 1714,
    "пат@@": 1715,
    "оди@@": 1716,
    "лять": 1717,
    "лей": 1718,
    "благодар@@": 1719,
    "Ю@@": 1720,
    "яс@@": 1721,
    "оказ@@": 1722,
    "муж": 1723,
    "зло": 1724,
    "шить": 1725,
    "чие": 1726,
    "сделали": 1727,
    "свет": 1728,
    "гает": 1729,
    "щем": 1730,
    "стол@@": 1731,
    "рук": 1732,
    "лено": 1733,
    "деревне": 1734,
    "тотчас": 1735,
    "сви@@": 1736,
    "ек@@": 1737,
    "дох@@": 1738,
    "весьма": 1739,
    "41": 1740,
    "шься": 1741,
    "чал": 1742,
    "фер@@": 1743,
    "слуша@@": 1744,
    "низ@@": 1745,
    "лиц@@": 1746,
    "быстро": 1747,
    "аш@@": 1748,
    "Ки@@": 1749,
    "39": 1750,
    "котором": 1751,
    "ей@@": 1752,
    "ден": 1753,
    "власти": 1754,
    "Посему": 1755,
    "Ге@@": 1756,
    "человече@@": 1757,
    "смер@@": 1758,
    "подоб@@": 1759,
    "лые": 1760,
    "здоро@@": 1761,
    "жение": 1762,
    "еде@@": 1763,
    "воду": 1764,
    "тысячи": 1765,
    "гну@@": 1766,
    "выпол@@": 1767,
    "чали": 1768,
    "точ@@": 1769,
    "придет": 1770,
    "жертвы": 1771,
    "гах": 1772,
    "Мои": 1773,
    "Иерусалима": 1774,
    "стей": 1775,
    "мира": 1776,
    "жения": 1777,
    "душ@@": 1778,
    "гал": 1779,
    "войны": 1780,
    "види@@": 1781,
    "Лю@@": 1782,
    "товари@@": 1783,
    "старо@@": 1784,
    "смотри@@": 1785,
    "никам": 1786,
    "вопро@@": 1787,
    "Божий": 1788,
    "укреп@@": 1789,
    "сне@@": 1790,
    "лени@@": 1791,
    "колена": 1792,
    "деле": 1793,
    "блу@@": 1794,
    "Моего": 1795,
    "ую": 1796,
    "состоя@@": 1797,
    "сих": 1798,
    "пы": 1799,
    "правду": 1800,
    "похо@@": 1801,
    "ответ": 1802,
    "ленные": 1803,
    "женщина": 1804,
    "дая": 1805,
    "второй": 1806,
    "России": 1807,
    "потер@@": 1808,
    "перво@@": 1809,
    "пад@@": 1810,
    "объя@@": 1811,
    "какие": 1812,
    "знаешь": 1813,
    "Христа": 1814,
    "Мое": 1815,
    "повелел": 1816,
    "нуж@@": 1817,
    "какое": 1818,
    "каждого": 1819,
    "жа": 1820,
    "Республике": 1821,
    "тым": 1822,
    "такие": 1823,
    "сно": 1824,
    "слав@@": 1825,
    "пор": 1826,
    "кнул": 1827,
    "думал": 1828,
    "веки": 1829,
    "ваясь": 1830,
    "бор@@": 1831,
    "Пер@@": 1832,
    "цве@@": 1833,
    "соответствии": 1834,
    "силы": 1835,
    "ночью": 1836,
    "настоя@@": 1837,
    "горе@@": 1838,
    "врагов": 1839,
    "Пет@@": 1840,
    "Иудеи": 1841,
    "Ду@@": 1842,
    "ять": 1843,
    "сред@@": 1844,
    "спро@@": 1845,
    "очи@@": 1846,
    "направ@@": 1847,
    "другого": 1848,
    "гать": 1849,
    "про": 1850,
    "нику": 1851,
    "мин@@": 1852,
    "меся@@": 1853,
    "ели": 1854,
    "вно": 1855,
    "Пу@@": 1856,
    "Господне": 1857,
    "Ван@@": 1858,
    "щее": 1859,
    "человеку": 1860,
    "тыся@@": 1861,
    "програм@@": 1862,
    "одежды": 1863,
    "дре@@": 1864,
    "выше": 1865,
    "улиц@@": 1866,
    "станет": 1867,
    "соблю@@": 1868,
    "объ@@": 1869,
    "минуту": 1870,
    "милость": 1871,
    "ляет": 1872,
    "лицо": 1873,
    "жители": 1874,
    "Поэтому": 1875,
    "Да@@": 1876,
    "свидетель@@": 1877,
    "могу": 1878,
    "конечно": 1879,
    "зы": 1880,
    "жену": 1881,
    "ждения": 1882,
    "Бу@@": 1883,
    "паль@@": 1884,
    "море": 1885,
    "мов": 1886,
    "мальчи@@": 1887,
    "всему": 1888,
    "уз@@": 1889,
    "публи@@": 1890,
    "дерев@@": 1891,
    "бюдже@@": 1892,
    "бами": 1893,
    "Иван": 1894,
    "0@@": 1895,
    "одну": 1896,
    "нию": 1897,
    "многих": 1898,
    "каждо@@": 1899,
    "гли": 1900,
    "гам": 1901,
    "ведения": 1902,
    "шая": 1903,
    "хочет": 1904,
    "ств": 1905,
    "ог@@": 1906,
    "вошел": 1907,
    "взяли": 1908,
    "Совета": 1909,
    "Ним": 1910,
    "чать": 1911,
    "развития": 1912,
    "почему": 1913,
    "пото@@": 1914,
    "мил@@": 1915,
    "мас@@": 1916,
    "ман": 1917,
    "дра@@": 1918,
    "вится": 1919,
    "бывает": 1920,
    "7@@": 1921,
    "ька": 1922,
    "ческих": 1923,
    "чала": 1924,
    "рев@@": 1925,
    "племен@@": 1926,
    "моему": 1927,
    "девя@@": 1928,
    "вился": 1929,
    "ближ@@": 1930,
    "42": 1931,
    "стол": 1932,
    "лоша@@": 1933,
    "годы": 1934,
    "ворот": 1935,
    "вил@@": 1936,
    "брата": 1937,
    "бить": 1938,
    "бил": 1939,
    "Твое": 1940,
    "Который": 1941,
    "2012": 1942,
    "уй@@": 1943,
    "случа@@": 1944,
    "нова": 1945,
    "меч@@": 1946,
    "ливо": 1947,
    "кали": 1948,
    "еди@@": 1949,
    "Израиль": 1950,
    "рассе@@": 1951,
    "проро@@": 1952,
    "понима@@": 1953,
    "позво@@": 1954,
    "нями": 1955,
    "нельзя": 1956,
    "жден@@": 1957,
    "ави@@": 1958,
    "Ле@@": 1959,
    "Гла@@": 1960,
    "Бы@@": 1961,
    "щ": 1962,
    "суд@@": 1963,
    "собира@@": 1964,
    "сильно": 1965,
    "постав@@": 1966,
    "лях": 1967,
    "близ@@": 1968,
    "Ла@@": 1969,
    "Израилев": 1970,
    "Воз@@": 1971,
    "50": 1972,
    "ёт": 1973,
    "печат@@": 1974,
    "взя@@": 1975,
    "Него": 1976,
    "чить": 1977,
    "уте@@": 1978,
    "установ@@": 1979,
    "тело": 1980,
    "суббо@@": 1981,
    "стом": 1982,
    "нес@@": 1983,
    "княз@@": 1984,
    "зывать": 1985,
    "ан": 1986,
    "Биденко": 1987,
    "почти": 1988,
    "народом": 1989,
    "глаз": 1990,
    "благово@@": 1991,
    "шко@@": 1992,
    "тит": 1993,
    "ствует": 1994,
    "сму@@": 1995,
    "поле@@": 1996,
    "отцов": 1997,
    "нял": 1998,
    "небес@@": 1999,
    "знако@@": 2000,
    "дому": 2001,
    "Там": 2002,
    "царей": 2003,
    "уб@@": 2004,
    "редакции": 2005,
    "няя": 2006,
    "нит": 2007,
    "молит@@": 2008,
    "лек@@": 2009,
    "культуры": 2010,
    "капитан": 2011,
    "дем": 2012,
    "давать": 2013,
    "братьев": 2014,
    "чной": 2015,
    "слуш@@": 2016,
    "раза": 2017,
    "погиб@@": 2018,
    "ностью": 2019,
    "коми@@": 2020,
    "ин": 2021,
    "дают": 2022,
    "вода": 2023,
    "анию": 2024,
    "Егип@@": 2025,
    "чрез": 2026,
    "твори@@": 2027,
    "ок@@": 2028,
    "маши@@": 2029,
    "лежа@@": 2030,
    "дели@@": 2031,
    "времен@@": 2032,
    "альных": 2033,
    "\";": 2034,
    "этим": 2035,
    "стой": 2036,
    "ственно": 2037,
    "способ@@": 2038,
    "насе@@": 2039,
    "любо@@": 2040,
    "лы@@": 2041,
    "лений": 2042,
    "гами": 2043,
    "вс@@": 2044,
    "вна": 2045,
    "чет@@": 2046,
    "уста": 2047,
    "твоему": 2048,
    "сраж@@": 2049,
    "око@@": 2050,
    "мель@@": 2051,
    "домой": 2052,
    "Все@@": 2053,
    "43": 2054,
    "хле@@": 2055,
    "уро@@": 2056,
    "точно": 2057,
    "сон": 2058,
    "рами": 2059,
    "писать": 2060,
    "новых": 2061,
    "вич": 2062,
    "вез@@": 2063,
    "важ@@": 2064,
    "При": 2065,
    "шим": 2066,
    "тяже@@": 2067,
    "содержания": 2068,
    "следующего": 2069,
    "серебро": 2070,
    "сах": 2071,
    "самого": 2072,
    "реги@@": 2073,
    "либо": 2074,
    "лав@@": 2075,
    "кажется": 2076,
    "дости@@": 2077,
    "верну@@": 2078,
    "языч@@": 2079,
    "ьев": 2080,
    "сорок": 2081,
    "оконч@@": 2082,
    "деревни": 2083,
    "гром@@": 2084,
    "государствен@@": 2085,
    "вшего": 2086,
    "встал": 2087,
    "2@@": 2088,
    "ческой": 2089,
    "хоть": 2090,
    "таким": 2091,
    "сохра@@": 2092,
    "скажет": 2093,
    "плен@@": 2094,
    "небо": 2095,
    "называ@@": 2096,
    "взо@@": 2097,
    "бат@@": 2098,
    "Египетской": 2099,
    "!..": 2100,
    "шку": 2101,
    "чре@@": 2102,
    "тыс": 2103,
    "собствен@@": 2104,
    "пустыне": 2105,
    "образом": 2106,
    "нюю": 2107,
    "нили": 2108,
    "могли": 2109,
    "местного": 2110,
    "йдет": 2111,
    "жертвен@@": 2112,
    "горя@@": 2113,
    "воск@@": 2114,
    "виде@@": 2115,
    "Фе@@": 2116,
    "Саваоф": 2117,
    "Благо@@": 2118,
    "уме@@": 2119,
    "тридцать": 2120,
    "руководи@@": 2121,
    "позна@@": 2122,
    "нения": 2123,
    "немец@@": 2124,
    "ложил": 2125,
    "бом": 2126,
    "ательно": 2127,
    "Петр": 2128,
    "уй": 2129,
    "сокру@@": 2130,
    "скинии": 2131,
    "сед@@": 2132,
    "реки": 2133,
    "пустил": 2134,
    "ори@@": 2135,
    "нес": 2136,
    "ленных": 2137,
    "живу@@": 2138,
    "ехал": 2139,
    "графи@@": 2140,
    "вою": 2141,
    "видно": 2142,
    "бо": 2143,
    "Твои": 2144,
    "Пере@@": 2145,
    "хочу": 2146,
    "тая": 2147,
    "поме@@": 2148,
    "покло@@": 2149,
    "осквер@@": 2150,
    "опреде@@": 2151,
    "одно@@": 2152,
    "образования": 2153,
    "начали": 2154,
    "крови": 2155,
    "ии": 2156,
    "гнев": 2157,
    "глубо@@": 2158,
    "Может": 2159,
    "ющ@@": 2160,
    "число": 2161,
    "тится": 2162,
    "сан@@": 2163,
    "рован@@": 2164,
    "принима@@": 2165,
    "прав@@": 2166,
    "палат@@": 2167,
    "нув": 2168,
    "немного": 2169,
    "моим": 2170,
    "исто@@": 2171,
    "дру@@": 2172,
    "голу@@": 2173,
    "веро@@": 2174,
    "анием": 2175,
    "Саул": 2176,
    "увели@@": 2177,
    "собрания": 2178,
    "приобре@@": 2179,
    "нике": 2180,
    "истори@@": 2181,
    "вдо@@": 2182,
    "третий": 2183,
    "ток": 2184,
    "проис@@": 2185,
    "преж@@": 2186,
    "нат@@": 2187,
    "вши@@": 2188,
    "возьми": 2189,
    "Иа@@": 2190,
    "таких": 2191,
    "преступ@@": 2192,
    "наз@@": 2193,
    "коман@@": 2194,
    "господин": 2195,
    "внутрен@@": 2196,
    "валась": 2197,
    "Гек": 2198,
    "Вас@@": 2199,
    "Божия": 2200,
    "собой": 2201,
    "скими": 2202,
    "рый": 2203,
    "никого": 2204,
    "нашел": 2205,
    "муж@@": 2206,
    "множество": 2207,
    "меч": 2208,
    "далеко": 2209,
    "бан@@": 2210,
    "ьсот": 2211,
    "числе": 2212,
    "услови@@": 2213,
    "ою": 2214,
    "отме@@": 2215,
    "матри@@": 2216,
    "зла": 2217,
    "довольно": 2218,
    "Ше@@": 2219,
    "этому": 2220,
    "читать": 2221,
    "уста@@": 2222,
    "тори@@": 2223,
    "сре@@": 2224,
    "сож@@": 2225,
    "слышал": 2226,
    "рядом": 2227,
    "равно": 2228,
    "нут": 2229,
    "необходи@@": 2230,
    "надцать": 2231,
    "информа@@": 2232,
    "измен@@": 2233,
    "гов": 2234,
    "вышли": 2235,
    "вспо@@": 2236,
    "вним@@": 2237,
    "Чуваш@@": 2238,
    "Сын": 2239,
    "Иван@@": 2240,
    "Вениами@@": 2241,
    "2015": 2242,
    "съ@@": 2243,
    "стов": 2244,
    "рука": 2245,
    "раб": 2246,
    "попро@@": 2247,
    "подви@@": 2248,
    "погу@@": 2249,
    "кол@@": 2250,
    "зву@@": 2251,
    "закры@@": 2252,
    "возь@@": 2253,
    "вашего": 2254,
    "альной": 2255,
    "Цар@@": 2256,
    "Государственного": 2257,
    "хвал@@": 2258,
    "тора": 2259,
    "зывает": 2260,
    "вина": 2261,
    "видеть": 2262,
    "Твоих": 2263,
    "?..": 2264,
    "чуть": 2265,
    "чает": 2266,
    "царем": 2267,
    "умно@@": 2268,
    "ствовали": 2269,
    "смотрел": 2270,
    "родил": 2271,
    "пов@@": 2272,
    "опас@@": 2273,
    "мра@@": 2274,
    "мина@@": 2275,
    "мени": 2276,
    "звер@@": 2277,
    "ел": 2278,
    "гря@@": 2279,
    "ала@@": 2280,
    "юно@@": 2281,
    "щал": 2282,
    "созд@@": 2283,
    "работа@@": 2284,
    "получ@@": 2285,
    "йти": 2286,
    "Боль@@": 2287,
    "ьям": 2288,
    "чного": 2289,
    "чет": 2290,
    "сыну": 2291,
    "Стар@@": 2292,
    "/": 2293,
    "ёл": 2294,
    "яро@@": 2295,
    "улыб@@": 2296,
    "тя": 2297,
    "труд@@": 2298,
    "схват@@": 2299,
    "сдел@@": 2300,
    "руками": 2301,
    "руб@@": 2302,
    "раба": 2303,
    "локтей": 2304,
    "имеет": 2305,
    "жесто@@": 2306,
    "Раз@@": 2307,
    "Му@@": 2308,
    "Иуде@@": 2309,
    "четвер@@": 2310,
    "чат@@": 2311,
    "цем": 2312,
    "ук@@": 2313,
    "увер@@": 2314,
    "территории": 2315,
    "сите": 2316,
    "ред@@": 2317,
    "подни@@": 2318,
    "нули": 2319,
    "находи@@": 2320,
    "мину@@": 2321,
    "кова": 2322,
    "жени@@": 2323,
    "деву@@": 2324,
    "двенадцать": 2325,
    "вен": 2326,
    "благосло@@": 2327,
    "беж@@": 2328,
    "шесть": 2329,
    "шек": 2330,
    "тр@@": 2331,
    "спор@@": 2332,
    "приве@@": 2333,
    "письмо": 2334,
    "мер": 2335,
    "мали": 2336,
    "лением": 2337,
    "конца": 2338,
    "её": 2339,
    "вхо@@": 2340,
    "всякого": 2341,
    "Сейчас": 2342,
    "Иакова": 2343,
    "5@@": 2344,
    ",]": 2345,
    "челове@@": 2346,
    "уст": 2347,
    "тив@@": 2348,
    "руке": 2349,
    "приз@@": 2350,
    "некоторые": 2351,
    "наход@@": 2352,
    "ленный": 2353,
    "казалось": 2354,
    "живо@@": 2355,
    "гой": 2356,
    "видели": 2357,
    "Еще": 2358,
    "3@@": 2359,
    "част@@": 2360,
    "хлеба": 2361,
    "терпе@@": 2362,
    "солнце": 2363,
    "разд@@": 2364,
    "правда": 2365,
    "поступ@@": 2366,
    "какая": 2367,
    "дерева": 2368,
    "вшим": 2369,
    "Отец": 2370,
    "шат@@": 2371,
    "такого": 2372,
    "спе@@": 2373,
    "следующей": 2374,
    "священни@@": 2375,
    "рус@@": 2376,
    "положил": 2377,
    "пожал@@": 2378,
    "нем@@": 2379,
    "неба": 2380,
    "любил": 2381,
    "жды": 2382,
    "еже@@": 2383,
    "щает": 2384,
    "шею": 2385,
    "тое": 2386,
    "совершен@@": 2387,
    "служить": 2388,
    "священники": 2389,
    "реб@@": 2390,
    "разговари@@": 2391,
    "прямо": 2392,
    "поэтому": 2393,
    "мужа": 2394,
    "молоде@@": 2395,
    "мен": 2396,
    "лат@@": 2397,
    "ина": 2398,
    "знаете": 2399,
    "виноград@@": 2400,
    "вайте": 2401,
    "аре@@": 2402,
    "Пре@@": 2403,
    "4@@": 2404,
    "ём": 2405,
    "школе": 2406,
    "тью": 2407,
    "тес@@": 2408,
    "сси@@": 2409,
    "рода": 2410,
    "повед@@": 2411,
    "нар@@": 2412,
    "мени@@": 2413,
    "любит": 2414,
    "лов@@": 2415,
    "конч@@": 2416,
    "дороге": 2417,
    "вый@@": 2418,
    "вари@@": 2419,
    "Сы@@": 2420,
    "яться": 2421,
    "ьи": 2422,
    "шем": 2423,
    "телем": 2424,
    "соци@@": 2425,
    "слава": 2426,
    "ску@@": 2427,
    "скота": 2428,
    "прош@@": 2429,
    "продолж@@": 2430,
    "причи@@": 2431,
    "пору@@": 2432,
    "пома@@": 2433,
    "пас@@": 2434,
    "нина": 2435,
    "комисси@@": 2436,
    "кал": 2437,
    "женщины": 2438,
    "деньги": 2439,
    "гие": 2440,
    "воспо@@": 2441,
    "возно@@": 2442,
    "вещ@@": 2443,
    "бур@@": 2444,
    "Иуда": 2445,
    "чис@@": 2446,
    "ствии": 2447,
    "свет@@": 2448,
    "принад@@": 2449,
    "позд@@": 2450,
    "организаци@@": 2451,
    "ног": 2452,
    "интере@@": 2453,
    "дочери": 2454,
    "делает": 2455,
    "двери": 2456,
    "груп@@": 2457,
    "голосования": 2458,
    "возвы@@": 2459,
    "вод": 2460,
    "взять": 2461,
    "Пе@@": 2462,
    "Моск@@": 2463,
    "Анге@@": 2464,
    "стви@@": 2465,
    "стать": 2466,
    "рал": 2467,
    "раж@@": 2468,
    "оттуда": 2469,
    "мии": 2470,
    "мальчик": 2471,
    "Твой": 2472,
    "Мат@@": 2473,
    "чных": 2474,
    "тела": 2475,
    "рые": 2476,
    "рок": 2477,
    "народ@@": 2478,
    "написано": 2479,
    "май@@": 2480,
    "ик@@": 2481,
    "запа@@": 2482,
    "докумен@@": 2483,
    "ваше": 2484,
    "Под@@": 2485,
    "Закона": 2486,
    "ятся": 2487,
    "язы@@": 2488,
    "эк@@": 2489,
    "храма": 2490,
    "стно": 2491,
    "произо@@": 2492,
    "поспе@@": 2493,
    "наконец": 2494,
    "лена": 2495,
    "дь@@": 2496,
    "вах": 2497,
    "Петрович": 2498,
    "школы": 2499,
    "тря@@": 2500,
    "самое": 2501,
    "сад@@": 2502,
    "привы@@": 2503,
    "послед@@": 2504,
    "находя@@": 2505,
    "наблю@@": 2506,
    "един@@": 2507,
    "гло@@": 2508,
    "вали@@": 2509,
    "Иоа@@": 2510,
    "Давиду": 2511,
    "»@@": 2512,
    "6@@": 2513,
    "46": 2514,
    "45": 2515,
    "44": 2516,
    "часто": 2517,
    "цами": 2518,
    "сторо@@": 2519,
    "руках": 2520,
    "рез@@": 2521,
    "разве": 2522,
    "престо@@": 2523,
    "напо@@": 2524,
    "извест@@": 2525,
    "добы@@": 2526,
    "вся": 2527,
    "вит": 2528,
    "бой": 2529,
    "блю@@": 2530,
    "200@@": 2531,
    "ё": 2532,
    "щая": 2533,
    "чувствовал": 2534,
    "хотелось": 2535,
    "спраши@@": 2536,
    "слову": 2537,
    "серебра": 2538,
    "север@@": 2539,
    "сделаю": 2540,
    "связан@@": 2541,
    "право": 2542,
    "поступа@@": 2543,
    "посте@@": 2544,
    "план@@": 2545,
    "пит": 2546,
    "пан@@": 2547,
    "отц@@": 2548,
    "мной": 2549,
    "логи@@": 2550,
    "клю@@": 2551,
    "исче@@": 2552,
    "иг@@": 2553,
    "дцати": 2554,
    "дат@@": 2555,
    "дайте": 2556,
    "вшиеся": 2557,
    "бира@@": 2558,
    "абзаце": 2559,
    "Господ@@": 2560,
    "чит": 2561,
    "час": 2562,
    "уст@@": 2563,
    "телям": 2564,
    "ступил": 2565,
    "сет": 2566,
    "нях": 2567,
    "недо@@": 2568,
    "ист@@": 2569,
    "избави@@": 2570,
    "дели": 2571,
    "вывел": 2572,
    "Ис@@": 2573,
    "Иаков": 2574,
    "ён@@": 2575,
    "шими": 2576,
    "храм": 2577,
    "треть@@": 2578,
    "ствовал": 2579,
    "сидел": 2580,
    "серди@@": 2581,
    "пус@@": 2582,
    "поги@@": 2583,
    "овец": 2584,
    "мимо": 2585,
    "месяц": 2586,
    "мастер@@": 2587,
    "изложить": 2588,
    "игра@@": 2589,
    "дочерей": 2590,
    "вше@@": 2591,
    "бри@@": 2592,
    "Ахи@@": 2593,
    "00": 2594,
    "языка": 2595,
    "страны": 2596,
    "оставил": 2597,
    "начи@@": 2598,
    "ится": 2599,
    "жертвенник": 2600,
    "дою": 2601,
    "десяти": 2602,
    "делах": 2603,
    "греш@@": 2604,
    "вет": 2605,
    "строитель@@": 2606,
    "смерть": 2607,
    "рат@@": 2608,
    "пуска@@": 2609,
    "прокля@@": 2610,
    "пример": 2611,
    "пребы@@": 2612,
    "отправ@@": 2613,
    "нок": 2614,
    "ново@@": 2615,
    "навстречу": 2616,
    "мере": 2617,
    "лежит": 2618,
    "коро@@": 2619,
    "ждение": 2620,
    "ери@@": 2621,
    "городов": 2622,
    "воло@@": 2623,
    "вес@@": 2624,
    "ана@@": 2625,
    "Самар@@": 2626,
    "Манасси@@": 2627,
    "Иуди@@": 2628,
    "ыш@@": 2629,
    "хлеб@@": 2630,
    "сят": 2631,
    "род": 2632,
    "отды@@": 2633,
    "остат@@": 2634,
    "новые": 2635,
    "нение": 2636,
    "дри@@": 2637,
    "глазах": 2638,
    "брос@@": 2639,
    "Иоси@@": 2640,
    "Вавилон@@": 2641,
    "хо": 2642,
    "территори@@": 2643,
    "смотре@@": 2644,
    "пункта": 2645,
    "пит@@": 2646,
    "коль@@": 2647,
    "ит@@": 2648,
    "золота": 2649,
    "емы": 2650,
    "дверь": 2651,
    "даро@@": 2652,
    "грехи": 2653,
    "голосом": 2654,
    "альные": 2655,
    "Па@@": 2656,
    "Алексея": 2657,
    "Ави@@": 2658,
    "услыш@@": 2659,
    "угодно": 2660,
    "ставит": 2661,
    "район@@": 2662,
    "отдал": 2663,
    "крыль@@": 2664,
    "ино@@": 2665,
    "зывал": 2666,
    "ень@@": 2667,
    "емся": 2668,
    "дное": 2669,
    "дере@@": 2670,
    "гору": 2671,
    "Однако": 2672,
    "Об": 2673,
    "Ди@@": 2674,
    "2017": 2675,
    "ят@@": 2676,
    "республике": 2677,
    "раться": 2678,
    "работе": 2679,
    "постро@@": 2680,
    "пости@@": 2681,
    "области": 2682,
    "нал": 2683,
    "живет": 2684,
    "головы": 2685,
    "говор@@": 2686,
    "ван": 2687,
    "Никола@@": 2688,
    "чуж@@": 2689,
    "чку": 2690,
    "фрон@@": 2691,
    "трех": 2692,
    "случае": 2693,
    "славу": 2694,
    "рых": 2695,
    "охо@@": 2696,
    "няет": 2697,
    "мый": 2698,
    "душе": 2699,
    "долго@@": 2700,
    "ваются": 2701,
    "Здесь": 2702,
    "Ав@@": 2703,
    "хран@@": 2704,
    "сест@@": 2705,
    "семей@@": 2706,
    "самом": 2707,
    "проек@@": 2708,
    "понял": 2709,
    "объек@@": 2710,
    "награ@@": 2711,
    "мог@@": 2712,
    "конкур@@": 2713,
    "завтра": 2714,
    "еле@@": 2715,
    "досто@@": 2716,
    "государ@@": 2717,
    "ваю": 2718,
    "бюджета": 2719,
    "Тво@@": 2720,
    "Сегодня": 2721,
    "ёр@@": 2722,
    "ческий": 2723,
    "узнал": 2724,
    "уг@@": 2725,
    "тран@@": 2726,
    "сут@@": 2727,
    "семьдесят": 2728,
    "пятьдесят": 2729,
    "пусти@@": 2730,
    "приношение": 2731,
    "поразил": 2732,
    "перевозок": 2733,
    "моря": 2734,
    "год@@": 2735,
    "авто@@": 2736,
    "Соломон": 2737,
    "Джо": 2738,
    "Алексе@@": 2739,
    "шает": 2740,
    "указан@@": 2741,
    "ужа@@": 2742,
    "пора@@": 2743,
    "помощь": 2744,
    "осуществля@@": 2745,
    "иску@@": 2746,
    "завет": 2747,
    "друж@@": 2748,
    "дея@@": 2749,
    "братья": 2750,
    "Мною": 2751,
    "Израилева": 2752,
    "Гал@@": 2753,
    "2016": 2754,
    "шно": 2755,
    "фон@@": 2756,
    "струк@@": 2757,
    "стер": 2758,
    "разуме@@": 2759,
    "просто": 2760,
    "круп@@": 2761,
    "иди": 2762,
    "жет": 2763,
    "ень": 2764,
    "док": 2765,
    "дан": 2766,
    "гося": 2767,
    "вор@@": 2768,
    "вель@@": 2769,
    "вани@@": 2770,
    "Закон": 2771,
    "Ангел": 2772,
    "широ@@": 2773,
    "чества": 2774,
    "часа": 2775,
    "цер@@": 2776,
    "услы@@": 2777,
    "тую": 2778,
    "суще@@": 2779,
    "старейши@@": 2780,
    "отцу": 2781,
    "откуда": 2782,
    "огнем": 2783,
    "обрат@@": 2784,
    "нице": 2785,
    "медленно": 2786,
    "ковчег": 2787,
    "зачем": 2788,
    "жерт@@": 2789,
    "ене@@": 2790,
    "госпо@@": 2791,
    "вича": 2792,
    "Аха@@": 2793,
    "?@@": 2794,
    "хе@@": 2795,
    "уни@@": 2796,
    "ствуют": 2797,
    "самоуправления": 2798,
    "производ@@": 2799,
    "заповеди": 2800,
    "дель@@": 2801,
    "вид": 2802,
    "ветер": 2803,
    "Енакиев": 2804,
    "Где": 2805,
    "2014": 2806,
    "яние": 2807,
    "сум@@": 2808,
    "стан": 2809,
    "рался": 2810,
    "проводи@@": 2811,
    "пала": 2812,
    "нился": 2813,
    "мужей": 2814,
    "множе@@": 2815,
    "мел@@": 2816,
    "искус@@": 2817,
    "именем": 2818,
    "забы@@": 2819,
    "жде": 2820,
    "другу": 2821,
    "дальше": 2822,
    "воцарился": 2823,
    "влад@@": 2824,
    "вести@@": 2825,
    "бов": 2826,
    "ющей": 2827,
    "хочется": 2828,
    "хал@@": 2829,
    "фу": 2830,
    "уди@@": 2831,
    "сооб@@": 2832,
    "скажу": 2833,
    "пересе@@": 2834,
    "начина@@": 2835,
    "жной": 2836,
    "жете": 2837,
    "воскре@@": 2838,
    "До": 2839,
    "2018": 2840,
    "утра": 2841,
    "таки": 2842,
    "совершенно": 2843,
    "родила": 2844,
    "просла@@": 2845,
    "предусмотрен@@": 2846,
    "пош@@": 2847,
    "послуша@@": 2848,
    "поддерж@@": 2849,
    "отдель@@": 2850,
    "опусто@@": 2851,
    "мудрость": 2852,
    "лью": 2853,
    "имуще@@": 2854,
    "зелен@@": 2855,
    "жешь": 2856,
    "другим": 2857,
    "дется": 2858,
    "ал": 2859,
    "Почему": 2860,
    "Иудеев": 2861,
    "2013": 2862,
    "ум": 2863,
    "тра": 2864,
    "ственной": 2865,
    "пры@@": 2866,
    "пораз@@": 2867,
    "пор@@": 2868,
    "поля": 2869,
    "очере@@": 2870,
    "остано@@": 2871,
    "небе@@": 2872,
    "начальник": 2873,
    "молодо@@": 2874,
    "менно": 2875,
    "лит": 2876,
    "значит": 2877,
    "жел@@": 2878,
    "ены": 2879,
    "дии": 2880,
    "вско@@": 2881,
    "вилась": 2882,
    "бар@@": 2883,
    "Че@@": 2884,
    "Царь": 2885,
    "Владимир": 2886,
    "учени@@": 2887,
    "торже@@": 2888,
    "спасе@@": 2889,
    "славы": 2890,
    "сердцем": 2891,
    "самый": 2892,
    "ребен@@": 2893,
    "пойди": 2894,
    "организации": 2895,
    "лова": 2896,
    "идо@@": 2897,
    "зал": 2898,
    "еся": 2899,
    "вперед": 2900,
    "ачаль@@": 2901,
    "Слу@@": 2902,
    "Моим": 2903,
    "шили": 2904,
    "честь": 2905,
    "стены": 2906,
    "рабов": 2907,
    "пода@@": 2908,
    "осуществ@@": 2909,
    "одном": 2910,
    "мет@@": 2911,
    "знам@@": 2912,
    "заня@@": 2913,
    "дц@@": 2914,
    "вещи": 2915,
    "ально": 2916,
    "чество": 2917,
    "увидев": 2918,
    "телями": 2919,
    "столько": 2920,
    "серебря@@": 2921,
    "священников": 2922,
    "самы@@": 2923,
    "сама": 2924,
    "пункт": 2925,
    "праздник": 2926,
    "полови@@": 2927,
    "первые": 2928,
    "мую": 2929,
    "муниципаль@@": 2930,
    "мерт@@": 2931,
    "меня@@": 2932,
    "людьми": 2933,
    "кров@@": 2934,
    "источ@@": 2935,
    "интерес@@": 2936,
    "желез@@": 2937,
    "ата": 2938,
    "Через": 2939,
    "Республика": 2940,
    "Один": 2941,
    "Израиле@@": 2942,
    "Ефре@@": 2943,
    "Ев@@": 2944,
    "царство": 2945,
    "хе": 2946,
    "уми@@": 2947,
    "тон@@": 2948,
    "стороне": 2949,
    "сквозь": 2950,
    "продук@@": 2951,
    "нч@@": 2952,
    "нра@@": 2953,
    "ностей": 2954,
    "нау@@": 2955,
    "лес": 2956,
    "книж@@": 2957,
    "изменений": 2958,
    "зада@@": 2959,
    "доволь@@": 2960,
    "вета": 2961,
    "ввер@@": 2962,
    "бума@@": 2963,
    "боро@@": 2964,
    "ющихся": 2965,
    "уче@@": 2966,
    "тки": 2967,
    "счаст@@": 2968,
    "стя@@": 2969,
    "среды": 2970,
    "смотреть": 2971,
    "скорб@@": 2972,
    "святы@@": 2973,
    "ран": 2974,
    "рам@@": 2975,
    "рабы": 2976,
    "работа": 2977,
    "нашим": 2978,
    "минут": 2979,
    "мечом": 2980,
    "лич@@": 2981,
    "зре@@": 2982,
    "законом": 2983,
    "врат@@": 2984,
    "большое": 2985,
    "Об@@": 2986,
    "Египта": 2987,
    "сро@@": 2988,
    "соб@@": 2989,
    "русс@@": 2990,
    "пь@@": 2991,
    "получи@@": 2992,
    "ова": 2993,
    "неу@@": 2994,
    "непре@@": 2995,
    "науч@@": 2996,
    "мана": 2997,
    "куп@@": 2998,
    "конец": 2999,
    "кни@@": 3000,
    "изменения": 3001,
    "жил@@": 3002,
    "емые": 3003,
    "деятельности": 3004,
    "вон": 3005,
    "верно": 3006,
    "Еф@@": 3007,
    "яр@@": 3008,
    "умерт@@": 3009,
    "стари@@": 3010,
    "скри@@": 3011,
    "сиро@@": 3012,
    "осно@@": 3013,
    "одним": 3014,
    "няли": 3015,
    "нулась": 3016,
    "мерзо@@": 3017,
    "любви": 3018,
    "лей@@": 3019,
    "кос@@": 3020,
    "кала": 3021,
    "йно": 3022,
    "дится": 3023,
    "государственной": 3024,
    "вож@@": 3025,
    "Сам": 3026,
    "Ионафан": 3027,
    "Гри@@": 3028,
    "частью": 3029,
    "тян": 3030,
    "тии": 3031,
    "строи@@": 3032,
    "случилось": 3033,
    "слишком": 3034,
    "следующие": 3035,
    "сию": 3036,
    "сим": 3037,
    "пророков": 3038,
    "нашли": 3039,
    "муд@@": 3040,
    "людям": 3041,
    "лым": 3042,
    "лишь": 3043,
    "ленного": 3044,
    "кли@@": 3045,
    "кии": 3046,
    "каза@@": 3047,
    "жите": 3048,
    "ев@@": 3049,
    "дишь": 3050,
    "воль@@": 3051,
    "вое@@": 3052,
    "вест@@": 3053,
    "ющее": 3054,
    "щу@@": 3055,
    "тал@@": 3056,
    "ственных": 3057,
    "сокрови@@": 3058,
    "производи@@": 3059,
    "представ@@": 3060,
    "правды": 3061,
    "поли@@": 3062,
    "покро@@": 3063,
    "подготов@@": 3064,
    "национ@@": 3065,
    "мет": 3066,
    "заметил": 3067,
    "ждать": 3068,
    "дие": 3069,
    "вшийся": 3070,
    "войско": 3071,
    "бежал": 3072,
    "Египет@@": 3073,
    "является": 3074,
    "чай@@": 3075,
    "цело@@": 3076,
    "ходя": 3077,
    "ува@@": 3078,
    "тию": 3079,
    "талан@@": 3080,
    "стана": 3081,
    "став": 3082,
    "скот": 3083,
    "связ@@": 3084,
    "рю@@": 3085,
    "рукою": 3086,
    "разведчи@@": 3087,
    "прило@@": 3088,
    "полити@@": 3089,
    "отда@@": 3090,
    "ор": 3091,
    "опре@@": 3092,
    "одежду": 3093,
    "оба": 3094,
    "ника@@": 3095,
    "мого": 3096,
    "мах": 3097,
    "лял": 3098,
    "лых": 3099,
    "лая": 3100,
    "испы@@": 3101,
    "избав@@": 3102,
    "звез@@": 3103,
    "желани@@": 3104,
    "деревен@@": 3105,
    "вшихся": 3106,
    "ви": 3107,
    "века": 3108,
    "ватель@@": 3109,
    "Сыновья": 3110,
    "Петро@@": 3111,
    "Ааро@@": 3112,
    "48": 3113,
    ".»;": 3114,
    "чуде@@": 3115,
    "фе": 3116,
    "учрежд@@": 3117,
    "участие": 3118,
    "удел": 3119,
    "удал@@": 3120,
    "рая": 3121,
    "приказал": 3122,
    "пр@@": 3123,
    "порядке": 3124,
    "пола@@": 3125,
    "пля@@": 3126,
    "отно@@": 3127,
    "отвра@@": 3128,
    "ните": 3129,
    "нин": 3130,
    "нима@@": 3131,
    "меры": 3132,
    "лесу": 3133,
    "лежал": 3134,
    "жили@@": 3135,
    "елей": 3136,
    "другом": 3137,
    "гар@@": 3138,
    "вовек": 3139,
    "вашим": 3140,
    "Сер@@": 3141,
    "Нав@@": 3142,
    "Израилевым": 3143,
    "хочешь": 3144,
    "супру@@": 3145,
    "пригото@@": 3146,
    "писан@@": 3147,
    "пещ@@": 3148,
    "овла@@": 3149,
    "нулись": 3150,
    "найти": 3151,
    "лем": 3152,
    "камень": 3153,
    "золото": 3154,
    "законодательства": 3155,
    "дороги": 3156,
    "газета": 3157,
    "веду": 3158,
    "больш@@": 3159,
    "благослов@@": 3160,
    "беспоко@@": 3161,
    "Конечно": 3162,
    "экономи@@": 3163,
    "чные": 3164,
    "хозя@@": 3165,
    "труда": 3166,
    "тать": 3167,
    "ступили": 3168,
    "стого": 3169,
    "собрались": 3170,
    "слушать": 3171,
    "свиде@@": 3172,
    "рт@@": 3173,
    "пораж@@": 3174,
    "площа@@": 3175,
    "охра@@": 3176,
    "лой": 3177,
    "квартир@@": 3178,
    "имел": 3179,
    "жие": 3180,
    "другое": 3181,
    "достой@@": 3182,
    "доли@@": 3183,
    "городах": 3184,
    "ган@@": 3185,
    "возмож@@": 3186,
    "Кирила": 3187,
    "Жи@@": 3188,
    "щать": 3189,
    "чему": 3190,
    "ужас@@": 3191,
    "теп@@": 3192,
    "стить": 3193,
    "срав@@": 3194,
    "ря": 3195,
    "окна": 3196,
    "ое": 3197,
    "однако": 3198,
    "ност@@": 3199,
    "наро@@": 3200,
    "написал": 3201,
    "напи@@": 3202,
    "мых": 3203,
    "любовь": 3204,
    "кости": 3205,
    "зная": 3206,
    "значи@@": 3207,
    "ена": 3208,
    "дорогу": 3209,
    "должна": 3210,
    "дар": 3211,
    "гими": 3212,
    "читал": 3213,
    "чами": 3214,
    "фара@@": 3215,
    "тяж@@": 3216,
    "требо@@": 3217,
    "стру@@": 3218,
    "строить": 3219,
    "сказав": 3220,
    "постанов@@": 3221,
    "останется": 3222,
    "насы@@": 3223,
    "намер@@": 3224,
    "льзу@@": 3225,
    "лами": 3226,
    "жилищ@@": 3227,
    "всесожжения": 3228,
    "вилось": 3229,
    "вашей": 3230,
    "Н": 3231,
    "Моих": 3232,
    "Мал@@": 3233,
    "Иису@@": 3234,
    "ций": 3235,
    "укра@@": 3236,
    "тили": 3237,
    "сделай": 3238,
    "рым": 3239,
    "прошел": 3240,
    "приготов@@": 3241,
    "правиль@@": 3242,
    "настоящего": 3243,
    "дую": 3244,
    "гут": 3245,
    "возвратился": 3246,
    "вне": 3247,
    "вия": 3248,
    "взы@@": 3249,
    "великий": 3250,
    "Пра@@": 3251,
    "Пав@@": 3252,
    "Есть": 3253,
    "щему": 3254,
    "школь@@": 3255,
    "шер@@": 3256,
    "чувашский": 3257,
    "улице": 3258,
    "стри@@": 3259,
    "распо@@": 3260,
    "продол@@": 3261,
    "посыла@@": 3262,
    "обман@@": 3263,
    "крест@@": 3264,
    "исце@@": 3265,
    "истинно": 3266,
    "жан@@": 3267,
    "дне@@": 3268,
    "вино@@": 3269,
    "Филистимля@@": 3270,
    "Их": 3271,
    "упа@@": 3272,
    "удар@@": 3273,
    "стым": 3274,
    "стояли": 3275,
    "ставил": 3276,
    "скал@@": 3277,
    "прекрас@@": 3278,
    "посмотре@@": 3279,
    "особенно": 3280,
    "осо@@": 3281,
    "ночи": 3282,
    "мероприяти@@": 3283,
    "мень@@": 3284,
    "комнат@@": 3285,
    "использо@@": 3286,
    "илу": 3287,
    "жает": 3288,
    "длин@@": 3289,
    "гали": 3290,
    "будь": 3291,
    "Ско@@": 3292,
    "Михаил": 3293,
    "Бекки": 3294,
    "ьей": 3295,
    "сказ@@": 3296,
    "сен": 3297,
    "полномочи@@": 3298,
    "плен": 3299,
    "песни": 3300,
    "ней@@": 3301,
    "легко": 3302,
    "зии": 3303,
    "делали": 3304,
    "голоса": 3305,
    "всякое": 3306,
    "всесожжение": 3307,
    "видя": 3308,
    "беззакон@@": 3309,
    "Ха@@": 3310,
    "47": 3311,
    "ялся": 3312,
    "чита@@": 3313,
    "чит@@": 3314,
    "часов": 3315,
    "хол@@": 3316,
    "тою": 3317,
    "твоем": 3318,
    "разру@@": 3319,
    "прошлом": 3320,
    "против@@": 3321,
    "приняли": 3322,
    "подар@@": 3323,
    "плоть": 3324,
    "пи": 3325,
    "онов": 3326,
    "одному": 3327,
    "несли": 3328,
    "наша": 3329,
    "матери@@": 3330,
    "жат": 3331,
    "емый": 3332,
    "духом": 3333,
    "газе@@": 3334,
    "безопас@@": 3335,
    "Гово@@": 3336,
    "Андре@@": 3337,
    "шест@@": 3338,
    "чен": 3339,
    "ход": 3340,
    "утром": 3341,
    "тельных": 3342,
    "статье": 3343,
    "сою@@": 3344,
    "села": 3345,
    "регулярных": 3346,
    "районе": 3347,
    "пья@@": 3348,
    "принес": 3349,
    "пригла@@": 3350,
    "предлож@@": 3351,
    "похоро@@": 3352,
    "последние": 3353,
    "попа@@": 3354,
    "овна": 3355,
    "мудрости": 3356,
    "жь": 3357,
    "едва": 3358,
    "доброе": 3359,
    "граждан": 3360,
    "головой": 3361,
    "войну": 3362,
    "возврати@@": 3363,
    "воде": 3364,
    "вов": 3365,
    "вку@@": 3366,
    "вей": 3367,
    "били": 3368,
    "То": 3369,
    "Пусть": 3370,
    "Иу@@": 3371,
    "];": 3372,
    "уда@@": 3373,
    "сосе@@": 3374,
    "рассу@@": 3375,
    "пророче@@": 3376,
    "письма": 3377,
    "отцы": 3378,
    "органов": 3379,
    "опу@@": 3380,
    "ноч@@": 3381,
    "мым": 3382,
    "мые": 3383,
    "мини@@": 3384,
    "мальчика": 3385,
    "искать": 3386,
    "зу": 3387,
    "воин@@": 3388,
    "возможно": 3389,
    "возлюб@@": 3390,
    "вечером": 3391,
    "Хан@@": 3392,
    "Твоей": 3393,
    "Своего": 3394,
    "Павел": 3395,
    "ющая": 3396,
    "цам": 3397,
    "тщ@@": 3398,
    "смир@@": 3399,
    "словом": 3400,
    "сия": 3401,
    "сельского": 3402,
    "процентов": 3403,
    "предал": 3404,
    "плы@@": 3405,
    "избрал": 3406,
    "завета": 3407,
    "думать": 3408,
    "дал@@": 3409,
    "говори": 3410,
    "гая": 3411,
    "Кроме": 3412,
    "Даже": 3413,
    "Божие": 3414,
    "чувашского": 3415,
    "счита@@": 3416,
    "разговор": 3417,
    "предприяти@@": 3418,
    "оцен@@": 3419,
    "осталось": 3420,
    "милли@@": 3421,
    "меча": 3422,
    "мера": 3423,
    "лями": 3424,
    "лиш@@": 3425,
    "именно": 3426,
    "ери": 3427,
    "декабря": 3428,
    "выро@@": 3429,
    "вось@@": 3430,
    "вана": 3431,
    "агн@@": 3432,
    "Тома": 3433,
    "Наконец": 3434,
    "Иосиф": 3435,
    "Или": 3436,
    "Дру@@": 3437,
    "языке": 3438,
    "чики": 3439,
    "чести@@": 3440,
    "умрет": 3441,
    "увидели": 3442,
    "тихо": 3443,
    "тельной": 3444,
    "такая": 3445,
    "судь@@": 3446,
    "сор@@": 3447,
    "сол@@": 3448,
    "разных": 3449,
    "прос@@": 3450,
    "провер@@": 3451,
    "осу@@": 3452,
    "орган@@": 3453,
    "огра@@": 3454,
    "объяс@@": 3455,
    "обли@@": 3456,
    "музы@@": 3457,
    "края": 3458,
    "красо@@": 3459,
    "корот@@": 3460,
    "знание": 3461,
    "голове": 3462,
    "вяз@@": 3463,
    "ворота": 3464,
    "вечера": 3465,
    "бросил": 3466,
    "Тут": 3467,
    "Аз@@": 3468,
    "ян": 3469,
    "шан@@": 3470,
    "фир@@": 3471,
    "тобой": 3472,
    "теат@@": 3473,
    "ственного": 3474,
    "силою": 3475,
    "самоле@@": 3476,
    "пункте": 3477,
    "продолжал": 3478,
    "прода@@": 3479,
    "поднял": 3480,
    "пира@@": 3481,
    "отро@@": 3482,
    "освя@@": 3483,
    "обо": 3484,
    "начале": 3485,
    "местах": 3486,
    "мг@@": 3487,
    "маршру@@": 3488,
    "мали@@": 3489,
    "лам": 3490,
    "иногда": 3491,
    "ехать": 3492,
    "емых": 3493,
    "готов@@": 3494,
    "говорила": 3495,
    "гают": 3496,
    "Христос": 3497,
    "Собрание": 3498,
    "Мер@@": 3499,
    "Между": 3500,
    "--": 3501,
    "экономического": 3502,
    "холод@@": 3503,
    "федераль@@": 3504,
    "тыми": 3505,
    "служи@@": 3506,
    "сли": 3507,
    "руко@@": 3508,
    "ремон@@": 3509,
    "помощи": 3510,
    "пойду": 3511,
    "обыкновен@@": 3512,
    "несчаст@@": 3513,
    "нер@@": 3514,
    "нал@@": 3515,
    "лё@@": 3516,
    "лина": 3517,
    "заду@@": 3518,
    "днем": 3519,
    "действительно": 3520,
    "дале@@": 3521,
    "говорите": 3522,
    "внесении": 3523,
    "ась": 3524,
    "Министров": 3525,
    "щается": 3526,
    "чих": 3527,
    "чили": 3528,
    "сфер@@": 3529,
    "сторона": 3530,
    "слух": 3531,
    "скорее": 3532,
    "рят": 3533,
    "рукой": 3534,
    "радость": 3535,
    "радости": 3536,
    "пойдет": 3537,
    "обеспеч@@": 3538,
    "моем": 3539,
    "мова": 3540,
    "мире": 3541,
    "менее": 3542,
    "маль@@": 3543,
    "лин@@": 3544,
    "леви@@": 3545,
    "лах": 3546,
    "кругом": 3547,
    "которому": 3548,
    "кина": 3549,
    "казывается": 3550,
    "жу@@": 3551,
    "живут": 3552,
    "ер": 3553,
    "думаю": 3554,
    "деть": 3555,
    "войне": 3556,
    "ата@@": 3557,
    "Нему": 3558,
    "ческие": 3559,
    "управ@@": 3560,
    "тетя": 3561,
    "спортив@@": 3562,
    "спать": 3563,
    "слови@@": 3564,
    "родствен@@": 3565,
    "рил": 3566,
    "приб@@": 3567,
    "огня": 3568,
    "образо@@": 3569,
    "мала": 3570,
    "клялся": 3571,
    "кле@@": 3572,
    "гнева": 3573,
    "гли@@": 3574,
    "Чу@@": 3575,
    "Израилем": 3576,
    "Внести": 3577,
    "Вал@@": 3578,
    "Аарон": 3579,
    "шите": 3580,
    "ходи": 3581,
    "фан@@": 3582,
    "убий@@": 3583,
    "рем": 3584,
    "работает": 3585,
    "прости@@": 3586,
    "представи@@": 3587,
    "писате@@": 3588,
    "обратно": 3589,
    "нь@@": 3590,
    "мите": 3591,
    "льного": 3592,
    "коп@@": 3593,
    "какую": 3594,
    "казал": 3595,
    "ич": 3596,
    "землею": 3597,
    "другому": 3598,
    "дете": 3599,
    "деревню": 3600,
    "гляды@@": 3601,
    "войска": 3602,
    "возврат@@": 3603,
    "ведо@@": 3604,
    "будучи": 3605,
    "аль": 3606,
    "Веф@@": 3607,
    "чением": 3608,
    "чек": 3609,
    "ходите": 3610,
    "удоволь@@": 3611,
    "тер": 3612,
    "тав@@": 3613,
    "сов@@": 3614,
    "сбо@@": 3615,
    "разруш@@": 3616,
    "различ@@": 3617,
    "призвал": 3618,
    "прибли@@": 3619,
    "правил@@": 3620,
    "откро@@": 3621,
    "освобо@@": 3622,
    "муниципальных": 3623,
    "мощ@@": 3624,
    "моли@@": 3625,
    "меш@@": 3626,
    "мама": 3627,
    "лали": 3628,
    "культур@@": 3629,
    "иметь": 3630,
    "девушка": 3631,
    "говори@@": 3632,
    "взяв": 3633,
    "ати@@": 3634,
    "абзац": 3635,
    "Чтобы": 3636,
    "Христо@@": 3637,
    "Хорошо": 3638,
    "Иерусали@@": 3639,
    "Ам@@": 3640,
    "55": 3641,
    "49": 3642,
    "тук": 3643,
    "страх": 3644,
    "стратеги@@": 3645,
    "ственные": 3646,
    "сотворил": 3647,
    "солдат@@": 3648,
    "скал": 3649,
    "сделает": 3650,
    "своею": 3651,
    "свете": 3652,
    "роды": 3653,
    "подно@@": 3654,
    "подле": 3655,
    "отли@@": 3656,
    "ону": 3657,
    "обрати@@": 3658,
    "новение": 3659,
    "молодой": 3660,
    "крат@@": 3661,
    "жный": 3662,
    "жим": 3663,
    "гад@@": 3664,
    "возвращ@@": 3665,
    "Тобою": 3666,
    "Потому": 3667,
    "Од@@": 3668,
    "Моисея": 3669,
    "]:": 3670,
    "52": 3671,
    ".]": 3672,
    "эффектив@@": 3673,
    "человеческий": 3674,
    "уто@@": 3675,
    "тив": 3676,
    "стрем@@": 3677,
    "ствования": 3678,
    "сохран@@": 3679,
    "сделан@@": 3680,
    "рей@@": 3681,
    "разор@@": 3682,
    "приле@@": 3683,
    "посмо@@": 3684,
    "поку@@": 3685,
    "подошел": 3686,
    "пасту@@": 3687,
    "открыл": 3688,
    "напра@@": 3689,
    "лод@@": 3690,
    "которыми": 3691,
    "знают": 3692,
    "выра@@": 3693,
    "вклю@@": 3694,
    "братия": 3695,
    "большие": 3696,
    "ая": 3697,
    "Пис@@": 3698,
    "Надо": 3699,
    "Кабине@@": 3700,
    "60": 3701,
    ",@@": 3702,
    "ходила": 3703,
    "успоко@@": 3704,
    "ума": 3705,
    "стый": 3706,
    "стране": 3707,
    "слушайте": 3708,
    "святилище": 3709,
    "республикан@@": 3710,
    "пшени@@": 3711,
    "правде": 3712,
    "перес@@": 3713,
    "новой": 3714,
    "никакого": 3715,
    "ник@@": 3716,
    "написан@@": 3717,
    "муниципального": 3718,
    "ляют": 3719,
    "кин": 3720,
    "исчис@@": 3721,
    "иль": 3722,
    "зри@@": 3723,
    "жертвенника": 3724,
    "женщи@@": 3725,
    "женный": 3726,
    "доно@@": 3727,
    "дий": 3728,
    "вопрос": 3729,
    "возможность": 3730,
    "верей": 3731,
    "актив@@": 3732,
    "Ти@@": 3733,
    "Ру@@": 3734,
    "Иуды": 3735,
    "Зна@@": 3736,
    "щил": 3737,
    "щиеся": 3738,
    "тяне": 3739,
    "терп@@": 3740,
    "счастли@@": 3741,
    "страд@@": 3742,
    "совет@@": 3743,
    "раньше": 3744,
    "поднима@@": 3745,
    "первен@@": 3746,
    "отправился": 3747,
    "отправились": 3748,
    "останавли@@": 3749,
    "остан@@": 3750,
    "остался": 3751,
    "левиты": 3752,
    "крепко": 3753,
    "конце": 3754,
    "колесни@@": 3755,
    "камен@@": 3756,
    "жреби@@": 3757,
    "господина": 3758,
    "вии": 3759,
    "вижу": 3760,
    "весели@@": 3761,
    "Вол@@": 3762,
    "Вала@@": 3763,
    "51": 3764,
    "чая": 3765,
    "утро": 3766,
    "услу@@": 3767,
    "ура": 3768,
    "тур@@": 3769,
    "станом": 3770,
    "станов@@": 3771,
    "седьмой": 3772,
    "самой": 3773,
    "росси@@": 3774,
    "регули@@": 3775,
    "рачи@@": 3776,
    "работал": 3777,
    "преду@@": 3778,
    "полно@@": 3779,
    "писал": 3780,
    "первого": 3781,
    "нор@@": 3782,
    "мей@@": 3783,
    "комп@@": 3784,
    "исполня@@": 3785,
    "зами": 3786,
    "женщин": 3787,
    "жая": 3788,
    "власть": 3789,
    "великое": 3790,
    "вав": 3791,
    "Твоим": 3792,
    "Пи@@": 3793,
    "Мно@@": 3794,
    "Кар@@": 3795,
    "явился": 3796,
    "числен@@": 3797,
    "ури@@": 3798,
    "тает": 3799,
    "сосуды": 3800,
    "смотря": 3801,
    "просил": 3802,
    "помощ@@": 3803,
    "пойдем": 3804,
    "планирования": 3805,
    "пать": 3806,
    "оте@@": 3807,
    "остались": 3808,
    "органи@@": 3809,
    "ниц": 3810,
    "наказ@@": 3811,
    "июня": 3812,
    "итак": 3813,
    "зади": 3814,
    "жизн@@": 3815,
    "женные": 3816,
    "ждал": 3817,
    "ехали": 3818,
    "дятся": 3819,
    "дим": 3820,
    "диви@@": 3821,
    "гордо@@": 3822,
    "вспом@@": 3823,
    "вино": 3824,
    "вании": 3825,
    "бою": 3826,
    "большая": 3827,
    "богатство": 3828,
    "арти@@": 3829,
    "Твоему": 3830,
    "Египет": 3831,
    "Горбунов": 3832,
    "!@@": 3833,
    "юр@@": 3834,
    "труб@@": 3835,
    "тных": 3836,
    "сынов@@": 3837,
    "службы": 3838,
    "скажут": 3839,
    "ска": 3840,
    "светиль@@": 3841,
    "роб@@": 3842,
    "рай@@": 3843,
    "прика@@": 3844,
    "пись": 3845,
    "огор@@": 3846,
    "образов@@": 3847,
    "нились": 3848,
    "нется": 3849,
    "наш@@": 3850,
    "мертвых": 3851,
    "казыва@@": 3852,
    "имен@@": 3853,
    "довер@@": 3854,
    "дерево": 3855,
    "водою": 3856,
    "велел": 3857,
    "богов": 3858,
    "берегу": 3859,
    "Разве": 3860,
    "I": 3861,
    "20@@": 3862,
    "чувству@@": 3863,
    "чика": 3864,
    "четная": 3865,
    "чест@@": 3866,
    "чай": 3867,
    "хвали@@": 3868,
    "хан@@": 3869,
    "тяжело": 3870,
    "техни@@": 3871,
    "строй@@": 3872,
    "разме@@": 3873,
    "пут@@": 3874,
    "протя@@": 3875,
    "приказ@@": 3876,
    "потом@@": 3877,
    "подобно": 3878,
    "пел": 3879,
    "пара@@": 3880,
    "останов@@": 3881,
    "оставили": 3882,
    "оправ@@": 3883,
    "нят": 3884,
    "ним@@": 3885,
    "научи@@": 3886,
    "люблю": 3887,
    "крепости": 3888,
    "книги": 3889,
    "жур@@": 3890,
    "другую": 3891,
    "др@@": 3892,
    "домом": 3893,
    "датель@@": 3894,
    "веру@@": 3895,
    "баш@@": 3896,
    "Фа@@": 3897,
    "Сте@@": 3898,
    "шта@@": 3899,
    "хло@@": 3900,
    "финан@@": 3901,
    "старик": 3902,
    "средств": 3903,
    "сист@@": 3904,
    "священнику": 3905,
    "родной": 3906,
    "пяти": 3907,
    "пророк": 3908,
    "пришла": 3909,
    "права": 3910,
    "посреди": 3911,
    "оши@@": 3912,
    "очисти@@": 3913,
    "нуться": 3914,
    "наре@@": 3915,
    "мысли": 3916,
    "мест": 3917,
    "ляли": 3918,
    "лого": 3919,
    "лиц": 3920,
    "коридо@@": 3921,
    "испу@@": 3922,
    "заповедал": 3923,
    "долж@@": 3924,
    "деб@@": 3925,
    "двести": 3926,
    "врага": 3927,
    "вошли": 3928,
    "вопросы": 3929,
    "видит": 3930,
    "бойся": 3931,
    "Чер@@": 3932,
    "Чебоксар@@": 3933,
    "Те@@": 3934,
    "Сар@@": 3935,
    "Ассирий@@": 3936,
    "щую": 3937,
    "шев@@": 3938,
    "хозяйства": 3939,
    "удосто@@": 3940,
    "тё@@": 3941,
    "сторон": 3942,
    "статью": 3943,
    "споко@@": 3944,
    "специ@@": 3945,
    "скать": 3946,
    "рой": 3947,
    "решил": 3948,
    "радостью": 3949,
    "раб@@": 3950,
    "пуш@@": 3951,
    "памят@@": 3952,
    "общество": 3953,
    "житель@@": 3954,
    "добро": 3955,
    "деви@@": 3956,
    "государственных": 3957,
    "век": 3958,
    "веден@@": 3959,
    "валось": 3960,
    "ализ@@": 3961,
    "Челове@@": 3962,
    "Сан@@": 3963,
    "Моя": 3964,
    "Дух": 3965,
    "Господнем": 3966,
    "щими": 3967,
    "шеп@@": 3968,
    "физ@@": 3969,
    "ученики": 3970,
    "умереть": 3971,
    "удоб@@": 3972,
    "твоими": 3973,
    "собрал": 3974,
    "след@@": 3975,
    "сиклей": 3976,
    "сделался": 3977,
    "располож@@": 3978,
    "пру@@": 3979,
    "приятия": 3980,
    "принесли": 3981,
    "послуш@@": 3982,
    "поклоня@@": 3983,
    "наследие": 3984,
    "метров": 3985,
    "литера@@": 3986,
    "кровью": 3987,
    "живых": 3988,
    "жать": 3989,
    "жат@@": 3990,
    "ево": 3991,
    "дым": 3992,
    "друзья": 3993,
    "домов": 3994,
    "дево@@": 3995,
    "голова": 3996,
    "геро@@": 3997,
    "выс@@": 3998,
    "виться": 3999,
    "Отца": 4000,
    "Моло@@": 4001,
    "Мари@@": 4002,
    "Кон@@": 4003,
    "Иудейского": 4004,
    "Господню": 4005,
    "Ведь": 4006,
    "Вдруг": 4007,
    "Вар@@": 4008,
    "ухо": 4009,
    "укло@@": 4010,
    "стые": 4011,
    "ственный": 4012,
    "социально": 4013,
    "скло@@": 4014,
    "сам@@": 4015,
    "рано": 4016,
    "пяти@@": 4017,
    "пришлось": 4018,
    "пример@@": 4019,
    "пользо@@": 4020,
    "пе": 4021,
    "оборо@@": 4022,
    "ногами": 4023,
    "никому": 4024,
    "нием": 4025,
    "мысль": 4026,
    "лине": 4027,
    "лез@@": 4028,
    "книгу": 4029,
    "инвести@@": 4030,
    "иле@@": 4031,
    "здоров@@": 4032,
    "зво@@": 4033,
    "емого": 4034,
    "дожд@@": 4035,
    "дный": 4036,
    "дала": 4037,
    "выйдет": 4038,
    "времена": 4039,
    "Чебоксары": 4040,
    "Смо@@": 4041,
    "Иона@@": 4042,
    "яли": 4043,
    "чным": 4044,
    "хуже": 4045,
    "уши": 4046,
    "упал": 4047,
    "туры": 4048,
    "трак@@": 4049,
    "тные": 4050,
    "ставляет": 4051,
    "соби@@": 4052,
    "скор@@": 4053,
    "решения": 4054,
    "полез@@": 4055,
    "пол": 4056,
    "октября": 4057,
    "муже@@": 4058,
    "молоды@@": 4059,
    "миро@@": 4060,
    "клас@@": 4061,
    "иначе": 4062,
    "изне@@": 4063,
    "зывали": 4064,
    "жий": 4065,
    "животных": 4066,
    "етесь": 4067,
    "ест": 4068,
    "ера": 4069,
    "даю": 4070,
    "возгла@@": 4071,
    "ваша": 4072,
    "Ор@@": 4073,
    "Однажды": 4074,
    "Моави@@": 4075,
    "Гер@@": 4076,
    "Василь@@": 4077,
    "Ба@@": 4078,
    "2011": 4079,
    "ющему": 4080,
    "успел": 4081,
    "умира@@": 4082,
    "ул@@": 4083,
    "суда": 4084,
    "справед@@": 4085,
    "соеди@@": 4086,
    "сар@@": 4087,
    "реализации": 4088,
    "райо@@": 4089,
    "пунк@@": 4090,
    "прошло": 4091,
    "пророка": 4092,
    "прав": 4093,
    "польз@@": 4094,
    "отнош@@": 4095,
    "обязан@@": 4096,
    "объяв@@": 4097,
    "можешь": 4098,
    "льз@@": 4099,
    "лить": 4100,
    "лился": 4101,
    "кажи": 4102,
    "ищ@@": 4103,
    "зор@@": 4104,
    "детьми": 4105,
    "двор": 4106,
    "дано": 4107,
    "второ@@": 4108,
    "вто@@": 4109,
    "влек@@": 4110,
    "Тот": 4111,
    "Тат@@": 4112,
    "Тамара": 4113,
    "Спаси@@": 4114,
    "Самуил": 4115,
    "Маль@@": 4116,
    "Израильтяне": 4117,
    "Зо@@": 4118,
    "Авраам": 4119,
    "2019": 4120,
    "цо": 4121,
    "царства": 4122,
    "устав@@": 4123,
    "узнать": 4124,
    "счет": 4125,
    "стару@@": 4126,
    "состав@@": 4127,
    "словно": 4128,
    "сла": 4129,
    "сему": 4130,
    "разные": 4131,
    "работ": 4132,
    "прише@@": 4133,
    "принял": 4134,
    "прили@@": 4135,
    "показал": 4136,
    "плоти": 4137,
    "период": 4138,
    "пало": 4139,
    "отво@@": 4140,
    "оставши@@": 4141,
    "организо@@": 4142,
    "окрест@@": 4143,
    "нечестивых": 4144,
    "нашему": 4145,
    "наше": 4146,
    "надцатый": 4147,
    "матер@@": 4148,
    "исти@@": 4149,
    "ждали": 4150,
    "ешься": 4151,
    "двиг@@": 4152,
    "граждан@@": 4153,
    "восемь": 4154,
    "возму@@": 4155,
    "вечер": 4156,
    "брать": 4157,
    "Николай": 4158,
    "Мою": 4159,
    "Дубровский": 4160,
    "Дол@@": 4161,
    "Давидо@@": 4162,
    "e@@": 4163,
    "54": 4164,
    "10@@": 4165,
    "щихся": 4166,
    "чувашской": 4167,
    "цени@@": 4168,
    "хода": 4169,
    "употреб@@": 4170,
    "уничто@@": 4171,
    "тного": 4172,
    "тился": 4173,
    "страха": 4174,
    "соглас@@": 4175,
    "семя": 4176,
    "сегодняш@@": 4177,
    "разно@@": 4178,
    "предо@@": 4179,
    "посмотрел": 4180,
    "порт@@": 4181,
    "получил": 4182,
    "отдел@@": 4183,
    "момент": 4184,
    "лицу": 4185,
    "кать": 4186,
    "йдя": 4187,
    "земля@@": 4188,
    "зе": 4189,
    "женных": 4190,
    "жда": 4191,
    "древ@@": 4192,
    "гнул": 4193,
    "вчера": 4194,
    "беззаконие": 4195,
    "ателей": 4196,
    "Нес@@": 4197,
    "Иерово@@": 4198,
    "Ел@@": 4199,
    "Духа": 4200,
    "70": 4201,
    "53": 4202,
    "ябло@@": 4203,
    "щик": 4204,
    "фана": 4205,
    "услышав": 4206,
    "убил": 4207,
    "течение": 4208,
    "тельного": 4209,
    "спокойно": 4210,
    "собы@@": 4211,
    "следует": 4212,
    "сказано": 4213,
    "путем": 4214,
    "получа@@": 4215,
    "пись@@": 4216,
    "память": 4217,
    "ощу@@": 4218,
    "очи": 4219,
    "народами": 4220,
    "мужес@@": 4221,
    "лян@@": 4222,
    "клады@@": 4223,
    "иск@@": 4224,
    "зр@@": 4225,
    "домы": 4226,
    "двер@@": 4227,
    "греха": 4228,
    "вь": 4229,
    "воспи@@": 4230,
    "великим": 4231,
    "Ху@@": 4232,
    "Крас@@": 4233,
    "Иоан@@": 4234,
    "Зат@@": 4235,
    "Было": 4236,
    "Авраа@@": 4237,
    "шал": 4238,
    "чине": 4239,
    "чении": 4240,
    "человеком": 4241,
    "царствовал": 4242,
    "ушел": 4243,
    "усили@@": 4244,
    "субъек@@": 4245,
    "ссо@@": 4246,
    "сообщ@@": 4247,
    "привел": 4248,
    "пили": 4249,
    "остави@@": 4250,
    "опол@@": 4251,
    "напря@@": 4252,
    "мона": 4253,
    "молодых": 4254,
    "младен@@": 4255,
    "контро@@": 4256,
    "комнату": 4257,
    "кило@@": 4258,
    "каким": 4259,
    "зом": 4260,
    "звук": 4261,
    "живущих": 4262,
    "жду": 4263,
    "енный": 4264,
    "духе": 4265,
    "вышла": 4266,
    "большим": 4267,
    "бель": 4268,
    "Хотя": 4269,
    "Соломо@@": 4270,
    "Ин@@": 4271,
    "Александр": 4272,
    "ющими": 4273,
    "числа": 4274,
    "цею": 4275,
    "цари": 4276,
    "холо@@": 4277,
    "тельца": 4278,
    "строительства": 4279,
    "спасение": 4280,
    "сильнее": 4281,
    "сере@@": 4282,
    "связи": 4283,
    "сва@@": 4284,
    "республиканского": 4285,
    "результат@@": 4286,
    "пыт@@": 4287,
    "построил": 4288,
    "пола": 4289,
    "поколение": 4290,
    "очами": 4291,
    "ответствен@@": 4292,
    "опера@@": 4293,
    "обле@@": 4294,
    "обви@@": 4295,
    "нен": 4296,
    "мур@@": 4297,
    "молчал": 4298,
    "ливо@@": 4299,
    "леса": 4300,
    "клу@@": 4301,
    "каче@@": 4302,
    "карти@@": 4303,
    "каль@@": 4304,
    "духа": 4305,
    "диться": 4306,
    "детям": 4307,
    "денег": 4308,
    "всяком": 4309,
    "блуд@@": 4310,
    "беззакония": 4311,
    "Сло@@": 4312,
    "Израильтян": 4313,
    "Божию": 4314,
    "Аммони@@": 4315,
    "Аарона": 4316,
    "0": 4317,
    "щают": 4318,
    "шут@@": 4319,
    "умо@@": 4320,
    "стере@@": 4321,
    "слышали": 4322,
    "словам": 4323,
    "сельскохозяй@@": 4324,
    "самых": 4325,
    "рия": 4326,
    "референдума": 4327,
    "регион@@": 4328,
    "прит@@": 4329,
    "председате@@": 4330,
    "пого@@": 4331,
    "перен@@": 4332,
    "общества": 4333,
    "наверно": 4334,
    "мати@@": 4335,
    "лови@@": 4336,
    "ково": 4337,
    "ира": 4338,
    "зни": 4339,
    "дцат@@": 4340,
    "делам": 4341,
    "господи@@": 4342,
    "гори@@": 4343,
    "волов": 4344,
    "возра@@": 4345,
    "бое@@": 4346,
    "благословил": 4347,
    "Сири@@": 4348,
    "Себя": 4349,
    "Каждый": 4350,
    "Вавилон": 4351,
    "яет": 4352,
    "ыми": 4353,
    "шал@@": 4354,
    "чаю": 4355,
    "худо@@": 4356,
    "храни@@": 4357,
    "участников": 4358,
    "требу@@": 4359,
    "тел": 4360,
    "сосед@@": 4361,
    "рей": 4362,
    "приношения": 4363,
    "предприним@@": 4364,
    "поно@@": 4365,
    "очах": 4366,
    "новый": 4367,
    "нести": 4368,
    "небес": 4369,
    "митри@@": 4370,
    "ленной": 4371,
    "крепость": 4372,
    "камни": 4373,
    "известно": 4374,
    "знания": 4375,
    "зани@@": 4376,
    "драгоцен@@": 4377,
    "держать": 4378,
    "годо@@": 4379,
    "всякой": 4380,
    "впереди": 4381,
    "вернулся": 4382,
    "близко": 4383,
    "абзац@@": 4384,
    "Своих": 4385,
    "Рабо@@": 4386,
    "Очень": 4387,
    "Неужели": 4388,
    "Иудее": 4389,
    "Государствен@@": 4390,
    "80": 4391,
    "ющийся": 4392,
    "четы@@": 4393,
    "чено": 4394,
    "ционной": 4395,
    "хой": 4396,
    "трево@@": 4397,
    "тех@@": 4398,
    "ступи@@": 4399,
    "стами": 4400,
    "стави@@": 4401,
    "слушай": 4402,
    "скорби": 4403,
    "рить": 4404,
    "решение": 4405,
    "рабу": 4406,
    "прошли": 4407,
    "прекра@@": 4408,
    "погреб@@": 4409,
    "первом": 4410,
    "отцам": 4411,
    "отпу@@": 4412,
    "некоторых": 4413,
    "народе": 4414,
    "месту": 4415,
    "мал": 4416,
    "лука@@": 4417,
    "край@@": 4418,
    "количество": 4419,
    "колен@@": 4420,
    "карто@@": 4421,
    "июля": 4422,
    "иться": 4423,
    "изум@@": 4424,
    "законч@@": 4425,
    "ес": 4426,
    "еры": 4427,
    "держал": 4428,
    "государственного": 4429,
    "вслед": 4430,
    "всад@@": 4431,
    "ведет": 4432,
    "бь@@": 4433,
    "Чего": 4434,
    "Ханаан@@": 4435,
    "Ведомости": 4436,
    "­": 4437,
    "чим": 4438,
    "хотят": 4439,
    "удо@@": 4440,
    "тной": 4441,
    "стию": 4442,
    "соревнов@@": 4443,
    "соба@@": 4444,
    "смотри": 4445,
    "слуги": 4446,
    "слезы": 4447,
    "священника": 4448,
    "прид@@": 4449,
    "постоянно": 4450,
    "посме@@": 4451,
    "порядок": 4452,
    "пози@@": 4453,
    "плод": 4454,
    "платы": 4455,
    "оне": 4456,
    "начин@@": 4457,
    "настоящей": 4458,
    "лыша@@": 4459,
    "лыш@@": 4460,
    "кораб@@": 4461,
    "здоровья": 4462,
    "запре@@": 4463,
    "едино@@": 4464,
    "домаш@@": 4465,
    "говор": 4466,
    "выши@@": 4467,
    "войти": 4468,
    "возле": 4469,
    "вза@@": 4470,
    "богам": 4471,
    "благове@@": 4472,
    "Сколько": 4473,
    "Иереми@@": 4474,
    "Гор@@": 4475,
    "Влади@@": 4476,
    "Вели@@": 4477,
    "92": 4478,
    "школу": 4479,
    "храме": 4480,
    "скажите": 4481,
    "сал@@": 4482,
    "рец": 4483,
    "распро@@": 4484,
    "разбой@@": 4485,
    "призна@@": 4486,
    "последний": 4487,
    "подумал": 4488,
    "повы@@": 4489,
    "писи": 4490,
    "орг@@": 4491,
    "неужели": 4492,
    "недостат@@": 4493,
    "лок@@": 4494,
    "лое": 4495,
    "лицом": 4496,
    "летних": 4497,
    "комплек@@": 4498,
    "комендан@@": 4499,
    "клят@@": 4500,
    "кает": 4501,
    "исключить": 4502,
    "имея": 4503,
    "зан": 4504,
    "жено": 4505,
    "другая": 4506,
    "дли@@": 4507,
    "делают": 4508,
    "глава": 4509,
    "гат@@": 4510,
    "возбу@@": 4511,
    "ванием": 4512,
    "бог": 4513,
    "ане@@": 4514,
    "Сол@@": 4515,
    "Нем": 4516,
    "Галаа@@": 4517,
    "Ах": 4518,
    "Антио@@": 4519,
    "Амор@@": 4520,
    "\"@@": 4521,
    "трепе@@": 4522,
    "тихо@@": 4523,
    "технологи@@": 4524,
    "тался": 4525,
    "ствием": 4526,
    "спек@@": 4527,
    "солдат": 4528,
    "сестра": 4529,
    "сердц@@": 4530,
    "семьи": 4531,
    "роде": 4532,
    "предел@@": 4533,
    "почита@@": 4534,
    "остается": 4535,
    "ници@@": 4536,
    "нилось": 4537,
    "наслед@@": 4538,
    "наверное": 4539,
    "милости": 4540,
    "лую": 4541,
    "лать": 4542,
    "кем": 4543,
    "какого": 4544,
    "исполни@@": 4545,
    "звал": 4546,
    "запове@@": 4547,
    "зав@@": 4548,
    "ено": 4549,
    "дворе": 4550,
    "двое": 4551,
    "гла": 4552,
    "воору@@": 4553,
    "брали": 4554,
    "бабу@@": 4555,
    "ато@@": 4556,
    "ама": 4557,
    "администрации": 4558,
    "ЧР": 4559,
    "Твою": 4560,
    "Елеа@@": 4561,
    "57": 4562,
    "ющиеся": 4563,
    "шина": 4564,
    "хотите": 4565,
    "хов@@": 4566,
    "утся": 4567,
    "спорта": 4568,
    "родился": 4569,
    "реши@@": 4570,
    "рассказал": 4571,
    "пу": 4572,
    "проти@@": 4573,
    "приходи@@": 4574,
    "предостав@@": 4575,
    "пищу": 4576,
    "первых": 4577,
    "остановился": 4578,
    "обращ@@": 4579,
    "неожидан@@": 4580,
    "мут": 4581,
    "моро@@": 4582,
    "молч@@": 4583,
    "млад@@": 4584,
    "мл@@": 4585,
    "ляется": 4586,
    "любопыт@@": 4587,
    "капитана": 4588,
    "исполнительной": 4589,
    "законодательством": 4590,
    "журнали@@": 4591,
    "жных": 4592,
    "жер@@": 4593,
    "ель@@": 4594,
    "допол@@": 4595,
    "двена@@": 4596,
    "горь@@": 4597,
    "гда": 4598,
    "встань": 4599,
    "возьмет": 4600,
    "будьте": 4601,
    "Таким": 4602,
    "Которого": 4603,
    "Или@@": 4604,
    "Иисусу": 4605,
    "Господним": 4606,
    "Всё": 4607,
    "o@@": 4608,
    "чий": 4609,
    "четырех": 4610,
    "чески": 4611,
    "ходов": 4612,
    "угне@@": 4613,
    "увидеть": 4614,
    "трудно": 4615,
    "тельные": 4616,
    "такую": 4617,
    "ствуйте": 4618,
    "статочно": 4619,
    "станавли@@": 4620,
    "сделались": 4621,
    "рек@@": 4622,
    "провод@@": 4623,
    "поселения": 4624,
    "поса@@": 4625,
    "получить": 4626,
    "пил@@": 4627,
    "офици@@": 4628,
    "откров@@": 4629,
    "осла@@": 4630,
    "нали@@": 4631,
    "машины": 4632,
    "левитов": 4633,
    "знамени@@": 4634,
    "занима@@": 4635,
    "закону": 4636,
    "дной": 4637,
    "двумя": 4638,
    "дальней@@": 4639,
    "даль@@": 4640,
    "говоришь": 4641,
    "глуб@@": 4642,
    "вшая": 4643,
    "вечер@@": 4644,
    "ближнего": 4645,
    "благословля@@": 4646,
    "ап@@": 4647,
    "айте": 4648,
    "Яковле@@": 4649,
    "Чувашского": 4650,
    "Ничего": 4651,
    "Иако@@": 4652,
    "Дави@@": 4653,
    "Всевыш@@": 4654,
    "Впрочем": 4655,
    "языком": 4656,
    "шин@@": 4657,
    "шать": 4658,
    "фари@@": 4659,
    "учеб@@": 4660,
    "улуч@@": 4661,
    "удив@@": 4662,
    "тек@@": 4663,
    "тей": 4664,
    "сом@@": 4665,
    "собрание": 4666,
    "саду": 4667,
    "родителей": 4668,
    "придут": 4669,
    "предо": 4670,
    "предместья": 4671,
    "посты@@": 4672,
    "постоян@@": 4673,
    "оста@@": 4674,
    "осве@@": 4675,
    "несе@@": 4676,
    "неприя@@": 4677,
    "мался": 4678,
    "любов@@": 4679,
    "лежало": 4680,
    "лагер@@": 4681,
    "комнаты": 4682,
    "имена": 4683,
    "имели": 4684,
    "знаем": 4685,
    "енные": 4686,
    "друзей": 4687,
    "док@@": 4688,
    "двадцати": 4689,
    "давал": 4690,
    "гнуть": 4691,
    "гнал": 4692,
    "вятся": 4693,
    "вут": 4694,
    "вспомнил": 4695,
    "воп@@": 4696,
    "вечно": 4697,
    "библиоте@@": 4698,
    "аны": 4699,
    "аб@@": 4700,
    "Твоя": 4701,
    "Рас@@": 4702,
    "Мария": 4703,
    "Же@@": 4704,
    "Ги@@": 4705,
    "73": 4706,
    "щены": 4707,
    "шестьдесят": 4708,
    "шай": 4709,
    "тка": 4710,
    "тера@@": 4711,
    "судить": 4712,
    "стое": 4713,
    "ствах": 4714,
    "стада": 4715,
    "сосу@@": 4716,
    "соответству@@": 4717,
    "солнца": 4718,
    "слад@@": 4719,
    "сильный": 4720,
    "сидя@@": 4721,
    "располо@@": 4722,
    "разде@@": 4723,
    "развед@@": 4724,
    "разби@@": 4725,
    "понра@@": 4726,
    "петь": 4727,
    "памяти": 4728,
    "огля@@": 4729,
    "никакой": 4730,
    "нении": 4731,
    "настав@@": 4732,
    "могуще@@": 4733,
    "могу@@": 4734,
    "медицин@@": 4735,
    "мало@@": 4736,
    "ляя": 4737,
    "лыми": 4738,
    "лист@@": 4739,
    "каждом": 4740,
    "иных": 4741,
    "заро@@": 4742,
    "закричал": 4743,
    "дождь": 4744,
    "деревян@@": 4745,
    "гор": 4746,
    "выйти": 4747,
    "возве@@": 4748,
    "вниз": 4749,
    "вероят@@": 4750,
    "Сына": 4751,
    "Свой": 4752,
    "Своим": 4753,
    "Марья": 4754,
    "Бла@@": 4755,
    "чия": 4756,
    "четвертый": 4757,
    "целе@@": 4758,
    "уровне": 4759,
    "увидит": 4760,
    "убежал": 4761,
    "тин": 4762,
    "тет": 4763,
    "тверды@@": 4764,
    "стоять": 4765,
    "спорт@@": 4766,
    "снег": 4767,
    "сад": 4768,
    "распростра@@": 4769,
    "раскры@@": 4770,
    "помочь": 4771,
    "отлич@@": 4772,
    "одо@@": 4773,
    "обеспе@@": 4774,
    "нашем": 4775,
    "маленький": 4776,
    "князья": 4777,
    "исследо@@": 4778,
    "исклю@@": 4779,
    "знаком@@": 4780,
    "зап@@": 4781,
    "закон@@": 4782,
    "ема": 4783,
    "дых@@": 4784,
    "дные": 4785,
    "дав@@": 4786,
    "гек@@": 4787,
    "внимание": 4788,
    "ваем": 4789,
    "бывшие": 4790,
    "борь@@": 4791,
    "Христе": 4792,
    "Филистимляне": 4793,
    "Федерального": 4794,
    "Себе": 4795,
    "Наро@@": 4796,
    "Израиле": 4797,
    "Иванович": 4798,
    "что@@": 4799,
    "чная": 4800,
    "фото@@": 4801,
    "утра@@": 4802,
    "телю": 4803,
    "сторон@@": 4804,
    "ситуа@@": 4805,
    "сидели": 4806,
    "ровать": 4807,
    "пунктом": 4808,
    "проф@@": 4809,
    "противо@@": 4810,
    "прия@@": 4811,
    "принять": 4812,
    "пошла": 4813,
    "помыш@@": 4814,
    "получили": 4815,
    "показалось": 4816,
    "пови@@": 4817,
    "нич@@": 4818,
    "невест@@": 4819,
    "маст@@": 4820,
    "истине": 4821,
    "избран@@": 4822,
    "живе@@": 4823,
    "громко": 4824,
    "гри@@": 4825,
    "глупо@@": 4826,
    "главы": 4827,
    "влады@@": 4828,
    "ветви": 4829,
    "атели": 4830,
    "Чебоксарах": 4831,
    "Тетя": 4832,
    "Правитель@@": 4833,
    "Ни": 4834,
    "Мини@@": 4835,
    "Ло@@": 4836,
    "Израилю": 4837,
    "Ивано@@": 4838,
    "Гаврило@@": 4839,
    "ялись": 4840,
    "юб@@": 4841,
    "учеников": 4842,
    "сыном": 4843,
    "старейшины": 4844,
    "спас@@": 4845,
    "сидеть": 4846,
    "разо@@": 4847,
    "проте@@": 4848,
    "поэ@@": 4849,
    "поставили": 4850,
    "поряд@@": 4851,
    "отря@@": 4852,
    "одни": 4853,
    "обрадо@@": 4854,
    "няется": 4855,
    "мужи": 4856,
    "культу@@": 4857,
    "ковой": 4858,
    "книге": 4859,
    "исправ@@": 4860,
    "изобра@@": 4861,
    "ждает": 4862,
    "жала": 4863,
    "детства": 4864,
    "депутат@@": 4865,
    "делай": 4866,
    "гою": 4867,
    "вшей": 4868,
    "волосы": 4869,
    "возли@@": 4870,
    "воздух": 4871,
    "весело": 4872,
    "вере@@": 4873,
    "бывших": 4874,
    "бол@@": 4875,
    "ближе": 4876,
    "альный": 4877,
    "Эта": 4878,
    "Моей": 4879,
    "Иордана": 4880,
    "Дети": 4881,
    "Дан@@": 4882,
    "Всевышнего": 4883,
    "яла": 4884,
    "юще@@": 4885,
    "эко@@": 4886,
    "чены": 4887,
    "церкви": 4888,
    "хотели": 4889,
    "упор@@": 4890,
    "тк@@": 4891,
    "сынами": 4892,
    "сут": 4893,
    "стает": 4894,
    "спасения": 4895,
    "сот@@": 4896,
    "собер@@": 4897,
    "ск": 4898,
    "сар": 4899,
    "пустить": 4900,
    "приходит": 4901,
    "представля@@": 4902,
    "потреб@@": 4903,
    "поддержи@@": 4904,
    "органами": 4905,
    "нче": 4906,
    "нашу": 4907,
    "начальники": 4908,
    "надоб@@": 4909,
    "мясо": 4910,
    "могла": 4911,
    "меньше": 4912,
    "мами": 4913,
    "ласко@@": 4914,
    "колени": 4915,
    "идут": 4916,
    "играть": 4917,
    "золотом": 4918,
    "запо@@": 4919,
    "завер@@": 4920,
    "жные": 4921,
    "жная": 4922,
    "жар@@": 4923,
    "далее": 4924,
    "втором": 4925,
    "волю": 4926,
    "возне@@": 4927,
    "виногра@@": 4928,
    "видение": 4929,
    "веще@@": 4930,
    "ведение": 4931,
    "бесе@@": 4932,
    "Этот": 4933,
    "Человек": 4934,
    "Ри@@": 4935,
    "Грушницкий": 4936,
    "Господе": 4937,
    "…@@": 4938,
    "четыр@@": 4939,
    "федера@@": 4940,
    "умы@@": 4941,
    "тина": 4942,
    "тились": 4943,
    "тий": 4944,
    "стес@@": 4945,
    "стая": 4946,
    "современ@@": 4947,
    "собла@@": 4948,
    "случаях": 4949,
    "сапо@@": 4950,
    "расположились": 4951,
    "прог@@": 4952,
    "придя": 4953,
    "привле@@": 4954,
    "последнее": 4955,
    "пах": 4956,
    "осторожно": 4957,
    "окружа@@": 4958,
    "обратился": 4959,
    "немно@@": 4960,
    "настоящее": 4961,
    "надежда": 4962,
    "можем": 4963,
    "мися": 4964,
    "миром": 4965,
    "кост@@": 4966,
    "класса": 4967,
    "капит@@": 4968,
    "изрек": 4969,
    "запла@@": 4970,
    "заболе@@": 4971,
    "жила": 4972,
    "ениями": 4973,
    "душно": 4974,
    "делами": 4975,
    "гласа": 4976,
    "вающий": 4977,
    "богу": 4978,
    "ас": 4979,
    "Эти": 4980,
    "Федеральным": 4981,
    "Силь@@": 4982,
    "Саула": 4983,
    "Казан@@": 4984,
    "Езекия": 4985,
    "Вся@@": 4986,
    "Ага@@": 4987,
    "яния": 4988,
    "ьем": 4989,
    "удивля@@": 4990,
    "тянин": 4991,
    "тим": 4992,
    "сту": 4993,
    "стой@@": 4994,
    "служан@@": 4995,
    "пир@@": 4996,
    "осе@@": 4997,
    "ово@@": 4998,
    "днев@@": 4999,
    "дву@@": 5000,
    "двора": 5001,
    "вольно": 5002,
    "великого": 5003,
    "брал": 5004,
    "Чуваши@@": 5005,
    "Фи@@": 5006,
    "Зако@@": 5007,
    "Апо@@": 5008,
    "Ал@@": 5009,
    "62": 5010,
    "шум": 5011,
    "цвет@@": 5012,
    "уш@@": 5013,
    "совет": 5014,
    "син@@": 5015,
    "рования": 5016,
    "рина": 5017,
    "пев@@": 5018,
    "особен@@": 5019,
    "нки": 5020,
    "неш@@": 5021,
    "мудро@@": 5022,
    "заключен@@": 5023,
    "ель": 5024,
    "давай": 5025,
    "госпитал@@": 5026,
    "гов@@": 5027,
    "Хев@@": 5028,
    "Так@@": 5029,
    "Симон": 5030,
    "Руви@@": 5031,
    "Интер@@": 5032,
    "Жен@@": 5033,
    "2009": 5034,
    "фра@@": 5035,
    "тали": 5036,
    "седь@@": 5037,
    "рую": 5038,
    "писто@@": 5039,
    "опы@@": 5040,
    "надцат@@": 5041,
    "ковче@@": 5042,
    "инвали@@": 5043,
    "зь": 5044,
    "заре@@": 5045,
    "высоко@@": 5046,
    "але": 5047,
    "Ф": 5048,
    "Сла@@": 5049,
    "Мил@@": 5050,
    "Ке@@": 5051,
    "Иоав": 5052,
    "Зе@@": 5053,
    "Анфи@@": 5054,
    "a@@": 5055,
    "64": 5056,
    "характер@@": 5057,
    "фун@@": 5058,
    "сне": 5059,
    "сат@@": 5060,
    "процен@@": 5061,
    "кад@@": 5062,
    "йской": 5063,
    "должно@@": 5064,
    "голов@@": 5065,
    "апре@@": 5066,
    "Эх": 5067,
    "Хал@@": 5068,
    "Зем@@": 5069,
    "Дубров@@": 5070,
    "Валери@@": 5071,
    "u@@": 5072,
    "58": 5073,
    "фараона": 5074,
    "уполномочен@@": 5075,
    "теле": 5076,
    "содерж@@": 5077,
    "серд@@": 5078,
    "разу": 5079,
    "профессион@@": 5080,
    "момен@@": 5081,
    "лес@@": 5082,
    "колле@@": 5083,
    "казан@@": 5084,
    "ито@@": 5085,
    "истин@@": 5086,
    "выш@@": 5087,
    "бин@@": 5088,
    "Филистим@@": 5089,
    "Тимо@@": 5090,
    "Симе@@": 5091,
    "Президен@@": 5092,
    "М": 5093,
    "Каз@@": 5094,
    "56": 5095,
    "2010": 5096,
    "шен": 5097,
    "фараон": 5098,
    "студен@@": 5099,
    "соответ@@": 5100,
    "рон": 5101,
    "професси@@": 5102,
    "пробле@@": 5103,
    "площад@@": 5104,
    "норматив@@": 5105,
    "нажды": 5106,
    "изб@@": 5107,
    "зов": 5108,
    "евна": 5109,
    "дине": 5110,
    "гим": 5111,
    "вар": 5112,
    "алом": 5113,
    "Ту@@": 5114,
    "Моисе@@": 5115,
    "Ковал@@": 5116,
    "Енаки@@": 5117,
    "Бат@@": 5118,
    "i@@": 5119,
    "секре@@": 5120,
    "сал": 5121,
    "переда@@": 5122,
    "май": 5123,
    "кой@@": 5124,
    "дав": 5125,
    "витель@@": 5126,
    "Юра": 5127,
    "Иордан": 5128,
    "Глу@@": 5129,
    "Ара@@": 5130,
    "90": 5131,
    "61": 5132,
    "шке": 5133,
    "тета": 5134,
    "специали@@": 5135,
    "ром@@": 5136,
    "реди": 5137,
    "педаго@@": 5138,
    "офицер@@": 5139,
    "минист@@": 5140,
    "лев": 5141,
    "ена@@": 5142,
    "диа@@": 5143,
    "гала": 5144,
    "вела": 5145,
    "бал@@": 5146,
    "ава": 5147,
    "Игнатьев": 5148,
    "Бере@@": 5149,
    "Аф@@": 5150,
    "энер@@": 5151,
    "шине@@": 5152,
    "фак@@": 5153,
    "сцен@@": 5154,
    "стань": 5155,
    "пропа@@": 5156,
    "еф@@": 5157,
    "Халде@@": 5158,
    "Учитель": 5159,
    "Полли": 5160,
    "Ну@@": 5161,
    "Ес@@": 5162,
    "Доб@@": 5163,
    "Вла@@": 5164,
    "r@@": 5165,
    "2006": 5166,
    "эта@@": 5167,
    "хал": 5168,
    "участок": 5169,
    "упра@@": 5170,
    "тир@@": 5171,
    "сче@@": 5172,
    "святили@@": 5173,
    "рий@@": 5174,
    "рет": 5175,
    "лимпи@@": 5176,
    "лик@@": 5177,
    "ленно": 5178,
    "зад@@": 5179,
    "грам@@": 5180,
    "глас": 5181,
    "гимна@@": 5182,
    "валь@@": 5183,
    "Серге@@": 5184,
    "Сау@@": 5185,
    "Пол@@": 5186,
    "Илия": 5187,
    "Даниил": 5188,
    "Аса@@": 5189,
    "Алексан@@": 5190,
    "фон": 5191,
    "ура@@": 5192,
    "стин@@": 5193,
    "путе@@": 5194,
    "пул@@": 5195,
    "приним@@": 5196,
    "прес@@": 5197,
    "они@@": 5198,
    "механи@@": 5199,
    "мах@@": 5200,
    "зия": 5201,
    "еш@@": 5202,
    "Сем@@": 5203,
    "Росси@@": 5204,
    "Мересьева": 5205,
    "72": 5206,
    "%": 5207,
    "ьева": 5208,
    "чин@@": 5209,
    "фестивал@@": 5210,
    "тр": 5211,
    "сотруд@@": 5212,
    "сот": 5213,
    "оро@@": 5214,
    "новен@@": 5215,
    "мож@@": 5216,
    "лани@@": 5217,
    "кая@@": 5218,
    "дана": 5219,
    "администра@@": 5220,
    "Филип@@": 5221,
    "Навуходоносор": 5222,
    "Иоанн": 5223,
    "Иерихо@@": 5224,
    "чке": 5225,
    "хар@@": 5226,
    "тин@@": 5227,
    "скла@@": 5228,
    "семе@@": 5229,
    "радио": 5230,
    "наступ@@": 5231,
    "насле@@": 5232,
    "лок": 5233,
    "креди@@": 5234,
    "командир@@": 5235,
    "друз@@": 5236,
    "бен@@": 5237,
    "Ян@@": 5238,
    "Сиона": 5239,
    "Сергей": 5240,
    "Мор@@": 5241,
    "Мади@@": 5242,
    "Лу@@": 5243,
    "Леви@@": 5244,
    "Зи@@": 5245,
    "I@@": 5246,
    "хоте@@": 5247,
    "тени": 5248,
    "сора": 5249,
    "сий": 5250,
    "промышлен@@": 5251,
    "мун@@": 5252,
    "мей": 5253,
    "женщ@@": 5254,
    "дирек@@": 5255,
    "день@@": 5256,
    "граждани@@": 5257,
    "бок@@": 5258,
    "Мэ@@": 5259,
    "Авраама": 5260,
    "91": 5261,
    ")@@": 5262,
    "%@@": 5263,
    "фици@@": 5264,
    "уров@@": 5265,
    "специаль@@": 5266,
    "спектак@@": 5267,
    "раш@@": 5268,
    "район": 5269,
    "пер": 5270,
    "ответ@@": 5271,
    "оруди@@": 5272,
    "лег": 5273,
    "колхоз@@": 5274,
    "деятель@@": 5275,
    "гал@@": 5276,
    "Соломона": 5277,
    "Иеремия": 5278,
    "Г": 5279,
    "Беф": 5280,
    ";»;": 5281,
    "2008": 5282,
    "член@@": 5283,
    "фу@@": 5284,
    "учитель": 5285,
    "газ@@": 5286,
    "выр@@": 5287,
    "артиллер@@": 5288,
    "ад@@": 5289,
    "Хе@@": 5290,
    "Пред@@": 5291,
    "П": 5292,
    "Куз@@": 5293,
    "Даша": 5294,
    "Герм@@": 5295,
    "Аза@@": 5296,
    "n@@": 5297,
    "100": 5298,
    ".)": 5299,
    "чее": 5300,
    "солн@@": 5301,
    "самолет": 5302,
    "обязатель@@": 5303,
    "лее": 5304,
    "лар@@": 5305,
    "лай": 5306,
    "кир@@": 5307,
    "кана": 5308,
    "евич": 5309,
    "Ша@@": 5310,
    "Маа@@": 5311,
    "Кир@@": 5312,
    "Авиме@@": 5313,
    "82": 5314,
    "74": 5315,
    "2007": 5316,
    "юри@@": 5317,
    "франц@@": 5318,
    "ути@@": 5319,
    "сик@@": 5320,
    "резер@@": 5321,
    "превос@@": 5322,
    "отрас@@": 5323,
    "крес@@": 5324,
    "княж@@": 5325,
    "дин": 5326,
    "говари@@": 5327,
    "батюшка": 5328,
    "акаде@@": 5329,
    "Маша": 5330,
    "Кан@@": 5331,
    "Иду@@": 5332,
    "Би@@": 5333,
    "Ама@@": 5334,
    "Ак@@": 5335,
    "Авра@@": 5336,
    "59": 5337,
    "циф@@": 5338,
    "херуви@@": 5339,
    "ух@@": 5340,
    "увиде@@": 5341,
    "столо@@": 5342,
    "сая": 5343,
    "сами@@": 5344,
    "опыт@@": 5345,
    "меро@@": 5346,
    "лышав": 5347,
    "круж@@": 5348,
    "кино": 5349,
    "заяв@@": 5350,
    "дене@@": 5351,
    "батаре@@": 5352,
    "ано": 5353,
    "Сион": 5354,
    "Кре@@": 5355,
    "Гар@@": 5356,
    "филь@@": 5357,
    "фель@@": 5358,
    "управления": 5359,
    "тури@@": 5360,
    "смен@@": 5361,
    "служа@@": 5362,
    "посла@@": 5363,
    "пов": 5364,
    "контрак@@": 5365,
    "капи@@": 5366,
    "кандидат@@": 5367,
    "институ@@": 5368,
    "замести@@": 5369,
    "езд@@": 5370,
    "дочер@@": 5371,
    "два@@": 5372,
    "ваши@@": 5373,
    "Сид": 5374,
    "Савао@@": 5375,
    "Израильтя@@": 5376,
    "Галаад@@": 5377,
    "Андрей": 5378,
    "Александро@@": 5379,
    "электро@@": 5380,
    "требовани@@": 5381,
    "тет@@": 5382,
    "тельство": 5383,
    "сор": 5384,
    "синаго@@": 5385,
    "рак": 5386,
    "полков@@": 5387,
    "наря@@": 5388,
    "мин": 5389,
    "лия": 5390,
    "кори@@": 5391,
    "кас@@": 5392,
    "гражд@@": 5393,
    "гер@@": 5394,
    "буд@@": 5395,
    "автобу@@": 5396,
    "Ча@@": 5397,
    "Красно@@": 5398,
    "Кня@@": 5399,
    "Ер@@": 5400,
    "чере@@": 5401,
    "хся": 5402,
    "фей": 5403,
    "тен": 5404,
    "стя": 5405,
    "ровна": 5406,
    "лько": 5407,
    "ире": 5408,
    "еле": 5409,
    "действи@@": 5410,
    "беззако@@": 5411,
    "Нефф@@": 5412,
    "Наде@@": 5413,
    "Михай@@": 5414,
    "Комиссар": 5415,
    "Кирило@@": 5416,
    "Езе@@": 5417,
    "85": 5418,
    "63": 5419,
    "2005": 5420,
    "эти@@": 5421,
    "фан": 5422,
    "универси@@": 5423,
    "тября": 5424,
    "тон": 5425,
    "тите": 5426,
    "так@@": 5427,
    "сте": 5428,
    "снаря@@": 5429,
    "руп@@": 5430,
    "пах@@": 5431,
    "назо@@": 5432,
    "комму@@": 5433,
    "кап@@": 5434,
    "жется": 5435,
    "ваш@@": 5436,
    "агро@@": 5437,
    "Юрий": 5438,
    "Констан@@": 5439,
    "Иосифа": 5440,
    "Егоровна": 5441,
    "Дамас@@": 5442,
    "Вик@@": 5443,
    "Васильевич": 5444,
    "Артаксерк@@": 5445,
    "Авессало@@": 5446,
    "худож@@": 5447,
    "тура": 5448,
    "сун@@": 5449,
    "секун@@": 5450,
    "пыла@@": 5451,
    "навод@@": 5452,
    "лам@@": 5453,
    "коммун@@": 5454,
    "командир": 5455,
    "ват": 5456,
    "Сам@@": 5457,
    "Пот@@": 5458,
    "«,": 5459,
    "76": 5460,
    "хать": 5461,
    "трах": 5462,
    "старший": 5463,
    "рем@@": 5464,
    "навер@@": 5465,
    "конкурса": 5466,
    "квар@@": 5467,
    "иле": 5468,
    "ефо@@": 5469,
    "дра": 5470,
    "дик@@": 5471,
    "аф": 5472,
    "ФЗ": 5473,
    "Саул@@": 5474,
    "Сал@@": 5475,
    "Петров": 5476,
    "Ники@@": 5477,
    "Михайло@@": 5478,
    "Лени@@": 5479,
    "Авессалом": 5480,
    "71": 5481,
    "учили@@": 5482,
    "трен@@": 5483,
    "сна": 5484,
    "сах@@": 5485,
    "ора": 5486,
    "капитан@@": 5487,
    "илу@@": 5488,
    "земле@@": 5489,
    "ехал@@": 5490,
    "град": 5491,
    "вни@@": 5492,
    "аэродро@@": 5493,
    "авиа@@": 5494,
    "Стал@@": 5495,
    "Семен@@": 5496,
    "Коми@@": 5497,
    "s@@": 5498,
    "e": 5499,
    "75": 5500,
    "69": 5501,
    "65": 5502,
    "ята": 5503,
    "ющи@@": 5504,
    "э": 5505,
    "чемпи@@": 5506,
    "хах": 5507,
    "фио@@": 5508,
    "улы@@": 5509,
    "телефон@@": 5510,
    "сех": 5511,
    "сек@@": 5512,
    "рудо@@": 5513,
    "мел": 5514,
    "мат": 5515,
    "интер@@": 5516,
    "ерт@@": 5517,
    "геста@@": 5518,
    "бря": 5519,
    "автомоб@@": 5520,
    "Чи@@": 5521,
    "Саму@@": 5522,
    "Пас@@": 5523,
    "Людмила": 5524,
    "Гу@@": 5525,
    "Григор@@": 5526,
    "Ад@@": 5527,
    "66": 5528,
    "199@@": 5529,
    "ью@@": 5530,
    "спортсмен@@": 5531,
    "собен@@": 5532,
    "смот@@": 5533,
    "проекта": 5534,
    "проект": 5535,
    "крепо@@": 5536,
    "конкурен@@": 5537,
    "коне@@": 5538,
    "коллекти@@": 5539,
    "Фар@@": 5540,
    "Сидо@@": 5541,
    "Мин@@": 5542,
    "Кукуш@@": 5543,
    "Кузми@@": 5544,
    "Капитан": 5545,
    "Иор@@": 5546,
    "шине": 5547,
    "чер": 5548,
    "ради@@": 5549,
    "посы@@": 5550,
    "полномочен@@": 5551,
    "осторо@@": 5552,
    "наго@@": 5553,
    "кодек@@": 5554,
    "ере": 5555,
    "бич": 5556,
    "Чебок@@": 5557,
    "Ци@@": 5558,
    "Хел@@": 5559,
    "Т": 5560,
    "Р": 5561,
    "Председате@@": 5562,
    "Навуходоно@@": 5563,
    "Лиза": 5564,
    "Иес@@": 5565,
    "Игнат@@": 5566,
    "Елена": 5567,
    "Ас@@": 5568,
    "Ана@@": 5569,
    "68": 5570,
    ",»": 5571,
    ");": 5572,
    "ӗ@@": 5573,
    "c@@": 5574,
    "/@@": 5575,
    "«@@": 5576,
    "l@@": 5577,
    "t@@": 5578,
    "Э": 5579,
    ";@@": 5580,
    "Д": 5581,
    "ӑ@@": 5582,
    "s": 5583,
    "m@@": 5584,
    "Е": 5585,
    ":@@": 5586,
    "+": 5587,
    "Ю": 5588,
    "Л": 5589,
    "(@@": 5590,
    "r": 5591,
    "h@@": 5592,
    "X@@": 5593,
    "d@@": 5594,
    "Б": 5595,
    "p@@": 5596,
    "Щ@@": 5597,
    "S@@": 5598,
    "v@@": 5599,
    "g@@": 5600,
    "]@@": 5601,
    "i": 5602,
    "n": 5603,
    "a": 5604,
    "t": 5605,
    "u": 5606,
    "C@@": 5607,
    "ҫ@@": 5608,
    "f@@": 5609,
    "b@@": 5610,
    "V": 5611,
    "F@@": 5612,
    "Й@@": 5613,
    "\\@@": 5614,
    "V@@": 5615,
    "Х": 5616,
    "X": 5617,
    "M@@": 5618,
    "ӗ": 5619,
    "Ц": 5620,
    "З": 5621,
    "y@@": 5622,
    "„": 5623,
    "Й": 5624,
    "p": 5625,
    "P@@": 5626,
    "A@@": 5627,
    "Ч": 5628,
    "w@@": 5629,
    "l": 5630,
    "k@@": 5631,
    "d": 5632,
    "L@@": 5633,
    "*@@": 5634,
    "Ҫ@@": 5635,
    "Ж": 5636,
    "é@@": 5637,
    "z": 5638,
    "N@@": 5639,
    "D@@": 5640,
    "ӑ": 5641,
    "ҫ": 5642,
    "Ь": 5643,
    "q@@": 5644,
    "j@@": 5645,
    "h": 5646,
    "c": 5647,
    "T@@": 5648,
    "R@@": 5649,
    "G@@": 5650,
    "E@@": 5651,
    "*": 5652,
    "№@@": 5653,
    "Ы": 5654,
    "¬": 5655,
    "W@@": 5656,
    "Q@@": 5657,
    "K@@": 5658,
    "H@@": 5659,
    "D": 5660,
    "C": 5661,
    "Ы@@": 5662,
    "Ш": 5663,
    "ó@@": 5664,
    "¦@@": 5665,
    "¦": 5666,
    "x": 5667,
    "w": 5668,
    "o": 5669,
    "m": 5670,
    "g": 5671,
    "\\": 5672,
    "U@@": 5673,
    "O@@": 5674,
    "N": 5675,
    "A": 5676,
    "@": 5677,
    "'": 5678,
    "ӳ@@": 5679,
    "Ь@@": 5680,
    "à": 5681,
    "°": 5682,
    "z@@": 5683,
    "y": 5684,
    "f": 5685,
    "b": 5686,
    "T": 5687,
    "S": 5688,
    "B": 5689,
    "-@@": 5690,
    "–@@": 5691,
    "Ӑ": 5692,
    "Ҫ": 5693,
    "ъ": 5694,
    "Ё@@": 5695,
    "ü@@": 5696,
    "û@@": 5697,
    "ï@@": 5698,
    "ê@@": 5699,
    "é": 5700,
    "è": 5701,
    "à@@": 5702,
    "×": 5703,
    "x@@": 5704,
    "v": 5705,
    "k": 5706,
    "`": 5707,
    "_@@": 5708,
    "[@@": 5709,
    "Y@@": 5710,
    "U": 5711,
    "R": 5712,
    "P": 5713,
    "J@@": 5714,
    "=": 5715,
    "'@@": 5716,
    "#@@": 5717,
    "#": 5718
}